
#include "tflite_model.h"

const unsigned char seizure_detection_model_tflite[] = {
  0x20, 0x00, 0x00, 0x00, 0x54, 0x46, 0x4c, 0x33, 0x00, 0x00, 0x00, 0x00,
  0x14, 0x00, 0x20, 0x00, 0x1c, 0x00, 0x18, 0x00, 0x14, 0x00, 0x10, 0x00,
  0x0c, 0x00, 0x00, 0x00, 0x08, 0x00, 0x04, 0x00, 0x14, 0x00, 0x00, 0x00,
  0x1c, 0x00, 0x00, 0x00, 0x88, 0x00, 0x00, 0x00, 0x00, 0x01, 0x00, 0x00,
  0xc4, 0x0e, 0x00, 0x00, 0xd4, 0x0e, 0x00, 0x00, 0x74, 0x4f, 0x00, 0x00,
  0x03, 0x00, 0x00, 0x00, 0x01, 0x00, 0x00, 0x00, 0x04, 0x00, 0x00, 0x00,
  0x36, 0xc6, 0xff, 0xff, 0x0c, 0x00, 0x00, 0x00, 0x1c, 0x00, 0x00, 0x00,
  0x3c, 0x00, 0x00, 0x00, 0x0f, 0x00, 0x00, 0x00, 0x73, 0x65, 0x72, 0x76,
  0x69, 0x6e, 0x67, 0x5f, 0x64, 0x65, 0x66, 0x61, 0x75, 0x6c, 0x74, 0x00,
  0x01, 0x00, 0x00, 0x00, 0x04, 0x00, 0x00, 0x00, 0xf0, 0xc7, 0xff, 0xff,
  0x28, 0x00, 0x00, 0x00, 0x04, 0x00, 0x00, 0x00, 0x08, 0x00, 0x00, 0x00,
  0x6f, 0x75, 0x74, 0x70, 0x75, 0x74, 0x5f, 0x30, 0x00, 0x00, 0x00, 0x00,
  0x01, 0x00, 0x00, 0x00, 0x04, 0x00, 0x00, 0x00, 0x2e, 0xc7, 0xff, 0xff,
  0x04, 0x00, 0x00, 0x00, 0x0b, 0x00, 0x00, 0x00, 0x69, 0x6e, 0x70, 0x75,
  0x74, 0x5f, 0x6c, 0x61, 0x79, 0x65, 0x72, 0x00, 0x03, 0x00, 0x00, 0x00,
  0x54, 0x00, 0x00, 0x00, 0x2c, 0x00, 0x00, 0x00, 0x04, 0x00, 0x00, 0x00,
  0x3c, 0xc8, 0xff, 0xff, 0x60, 0x00, 0x00, 0x00, 0x04, 0x00, 0x00, 0x00,
  0x13, 0x00, 0x00, 0x00, 0x43, 0x4f, 0x4e, 0x56, 0x45, 0x52, 0x53, 0x49,
  0x4f, 0x4e, 0x5f, 0x4d, 0x45, 0x54, 0x41, 0x44, 0x41, 0x54, 0x41, 0x00,
  0x60, 0xc8, 0xff, 0xff, 0x5f, 0x00, 0x00, 0x00, 0x04, 0x00, 0x00, 0x00,
  0x13, 0x00, 0x00, 0x00, 0x6d, 0x69, 0x6e, 0x5f, 0x72, 0x75, 0x6e, 0x74,
  0x69, 0x6d, 0x65, 0x5f, 0x76, 0x65, 0x72, 0x73, 0x69, 0x6f, 0x6e, 0x00,
  0x84, 0xc8, 0xff, 0xff, 0x5e, 0x00, 0x00, 0x00, 0x04, 0x00, 0x00, 0x00,
  0x13, 0x00, 0x00, 0x00, 0x6d, 0x69, 0x6e, 0x5f, 0x72, 0x75, 0x6e, 0x74,
  0x69, 0x6d, 0x65, 0x5f, 0x76, 0x65, 0x72, 0x73, 0x69, 0x6f, 0x6e, 0x00,
  0x61, 0x00, 0x00, 0x00, 0xc0, 0x0d, 0x00, 0x00, 0xb8, 0x0d, 0x00, 0x00,
  0xa4, 0x0d, 0x00, 0x00, 0x8c, 0x0d, 0x00, 0x00, 0x78, 0x0d, 0x00, 0x00,
  0x5c, 0x0d, 0x00, 0x00, 0x48, 0x0d, 0x00, 0x00, 0x40, 0x0d, 0x00, 0x00,
  0x2c, 0x0d, 0x00, 0x00, 0x10, 0x0d, 0x00, 0x00, 0x08, 0x0d, 0x00, 0x00,
  0xec, 0x0c, 0x00, 0x00, 0xd0, 0x0c, 0x00, 0x00, 0xb4, 0x0c, 0x00, 0x00,
  0xa0, 0x0c, 0x00, 0x00, 0x80, 0x0c, 0x00, 0x00, 0x6c, 0x0c, 0x00, 0x00,
  0x1c, 0x0c, 0x00, 0x00, 0x0c, 0x0b, 0x00, 0x00, 0x04, 0x0b, 0x00, 0x00,
  0xfc, 0x0a, 0x00, 0x00, 0xf4, 0x0a, 0x00, 0x00, 0xec, 0x0a, 0x00, 0x00,
  0xe4, 0x0a, 0x00, 0x00, 0xdc, 0x0a, 0x00, 0x00, 0xd4, 0x0a, 0x00, 0x00,
  0xcc, 0x0a, 0x00, 0x00, 0xc4, 0x0a, 0x00, 0x00, 0xbc, 0x0a, 0x00, 0x00,
  0xb4, 0x0a, 0x00, 0x00, 0xac, 0x0a, 0x00, 0x00, 0xa4, 0x0a, 0x00, 0x00,
  0x9c, 0x0a, 0x00, 0x00, 0x94, 0x0a, 0x00, 0x00, 0x8c, 0x0a, 0x00, 0x00,
  0x84, 0x0a, 0x00, 0x00, 0x7c, 0x0a, 0x00, 0x00, 0x74, 0x0a, 0x00, 0x00,
  0x6c, 0x0a, 0x00, 0x00, 0x64, 0x0a, 0x00, 0x00, 0x5c, 0x0a, 0x00, 0x00,
  0x54, 0x0a, 0x00, 0x00, 0x4c, 0x0a, 0x00, 0x00, 0x44, 0x0a, 0x00, 0x00,
  0x3c, 0x0a, 0x00, 0x00, 0x34, 0x0a, 0x00, 0x00, 0x2c, 0x0a, 0x00, 0x00,
  0x24, 0x0a, 0x00, 0x00, 0x1c, 0x0a, 0x00, 0x00, 0x14, 0x0a, 0x00, 0x00,
  0x0c, 0x0a, 0x00, 0x00, 0x04, 0x0a, 0x00, 0x00, 0xfc, 0x09, 0x00, 0x00,
  0xf4, 0x09, 0x00, 0x00, 0xec, 0x09, 0x00, 0x00, 0xe4, 0x09, 0x00, 0x00,
  0xdc, 0x09, 0x00, 0x00, 0xc4, 0x09, 0x00, 0x00, 0xac, 0x09, 0x00, 0x00,
  0x94, 0x09, 0x00, 0x00, 0x7c, 0x09, 0x00, 0x00, 0x68, 0x09, 0x00, 0x00,
  0x60, 0x09, 0x00, 0x00, 0x4c, 0x09, 0x00, 0x00, 0x7c, 0x08, 0x00, 0x00,
  0x6c, 0x05, 0x00, 0x00, 0x9c, 0x04, 0x00, 0x00, 0x8c, 0x01, 0x00, 0x00,
  0x84, 0x01, 0x00, 0x00, 0x7c, 0x01, 0x00, 0x00, 0x74, 0x01, 0x00, 0x00,
  0x6c, 0x01, 0x00, 0x00, 0x64, 0x01, 0x00, 0x00, 0x5c, 0x01, 0x00, 0x00,
  0x54, 0x01, 0x00, 0x00, 0x4c, 0x01, 0x00, 0x00, 0x44, 0x01, 0x00, 0x00,
  0x3c, 0x01, 0x00, 0x00, 0x34, 0x01, 0x00, 0x00, 0x2c, 0x01, 0x00, 0x00,
  0x24, 0x01, 0x00, 0x00, 0x1c, 0x01, 0x00, 0x00, 0x14, 0x01, 0x00, 0x00,
  0x0c, 0x01, 0x00, 0x00, 0x04, 0x01, 0x00, 0x00, 0xfc, 0x00, 0x00, 0x00,
  0xf4, 0x00, 0x00, 0x00, 0xec, 0x00, 0x00, 0x00, 0xe4, 0x00, 0x00, 0x00,
  0xdc, 0x00, 0x00, 0x00, 0xd4, 0x00, 0x00, 0x00, 0xcc, 0x00, 0x00, 0x00,
  0xc4, 0x00, 0x00, 0x00, 0xbc, 0x00, 0x00, 0x00, 0x9c, 0x00, 0x00, 0x00,
  0x7c, 0x00, 0x00, 0x00, 0x04, 0x00, 0x00, 0x00, 0x4a, 0xc9, 0xff, 0xff,
  0x04, 0x00, 0x00, 0x00, 0x68, 0x00, 0x00, 0x00, 0x0c, 0x00, 0x00, 0x00,
  0x08, 0x00, 0x0e, 0x00, 0x08, 0x00, 0x04, 0x00, 0x08, 0x00, 0x00, 0x00,
  0x14, 0x00, 0x00, 0x00, 0x30, 0x00, 0x00, 0x00, 0x00, 0x00, 0x0a, 0x00,
  0x0c, 0x00, 0x08, 0x00, 0x00, 0x00, 0x07, 0x00, 0x0a, 0x00, 0x00, 0x00,
  0x00, 0x00, 0x00, 0x01, 0x04, 0x00, 0x00, 0x00, 0x01, 0x00, 0x00, 0x00,
  0xeb, 0x03, 0x00, 0x00, 0x0c, 0x00, 0x18, 0x00, 0x14, 0x00, 0x10, 0x00,
  0x0c, 0x00, 0x04, 0x00, 0x0c, 0x00, 0x00, 0x00, 0x3b, 0xa1, 0x59, 0x5e,
  0x6a, 0xb8, 0x59, 0xea, 0x02, 0x00, 0x00, 0x00, 0x02, 0x00, 0x00, 0x00,
  0x04, 0x00, 0x00, 0x00, 0x06, 0x00, 0x00, 0x00, 0x32, 0x2e, 0x31, 0x38,
  0x2e, 0x30, 0x00, 0x00, 0xbe, 0xc9, 0xff, 0xff, 0x04, 0x00, 0x00, 0x00,
  0x10, 0x00, 0x00, 0x00, 0x00, 0x00, 0x00, 0x00, 0x00, 0x00, 0x00, 0x00,
  0x00, 0x00, 0x00, 0x00, 0x00, 0x00, 0x00, 0x00, 0xda, 0xc9, 0xff, 0xff,
  0x04, 0x00, 0x00, 0x00, 0x10, 0x00, 0x00, 0x00, 0x32, 0x2e, 0x35, 0x2e,
  0x30, 0x00, 0x00, 0x00, 0x00, 0x00, 0x00, 0x00, 0x00, 0x00, 0x00, 0x00,
  0xf0, 0xb3, 0xff, 0xff, 0xf4, 0xb3, 0xff, 0xff, 0xf8, 0xb3, 0xff, 0xff,
  0xfc, 0xb3, 0xff, 0xff, 0x00, 0xb4, 0xff, 0xff, 0x04, 0xb4, 0xff, 0xff,
  0x08, 0xb4, 0xff, 0xff, 0x0c, 0xb4, 0xff, 0xff, 0x10, 0xb4, 0xff, 0xff,
  0x14, 0xb4, 0xff, 0xff, 0x18, 0xb4, 0xff, 0xff, 0x1c, 0xb4, 0xff, 0xff,
  0x20, 0xb4, 0xff, 0xff, 0x24, 0xb4, 0xff, 0xff, 0x28, 0xb4, 0xff, 0xff,
  0x2c, 0xb4, 0xff, 0xff, 0x30, 0xb4, 0xff, 0xff, 0x34, 0xb4, 0xff, 0xff,
  0x38, 0xb4, 0xff, 0xff, 0x3c, 0xb4, 0xff, 0xff, 0x40, 0xb4, 0xff, 0xff,
  0x44, 0xb4, 0xff, 0xff, 0x48, 0xb4, 0xff, 0xff, 0x4c, 0xb4, 0xff, 0xff,
  0x50, 0xb4, 0xff, 0xff, 0x54, 0xb4, 0xff, 0xff, 0x5e, 0xca, 0xff, 0xff,
  0x04, 0x00, 0x00, 0x00, 0x00, 0x03, 0x00, 0x00, 0xfa, 0xe4, 0x13, 0xf5,
  0x0d, 0xe3, 0x0e, 0xf8, 0x09, 0xe8, 0xf8, 0x1f, 0x20, 0xef, 0x0d, 0x1b,
  0xac, 0x15, 0xce, 0xda, 0xc5, 0xf3, 0xcc, 0x18, 0xdf, 0xc4, 0x19, 0x0a,
  0xa8, 0x12, 0xe8, 0xea, 0xfe, 0xfe, 0xff, 0x02, 0x00, 0x00, 0xff, 0xfe,
  0x01, 0xff, 0x00, 0xfd, 0xfe, 0x01, 0x00, 0xfe, 0x00, 0x01, 0x02, 0x02,
  0xfe, 0x03, 0x00, 0x01, 0x01, 0x00, 0xff, 0x00, 0xff, 0x00, 0x00, 0xfe,
  0x01, 0x03, 0xfe, 0x04, 0x01, 0x00, 0x00, 0x05, 0x01, 0xfb, 0xff, 0xfb,
  0x0a, 0xfe, 0x07, 0xfb, 0x05, 0xf3, 0xf3, 0x07, 0x10, 0xf8, 0xfd, 0xfe,
  0xf3, 0xf8, 0xfc, 0xfc, 0xf4, 0xf5, 0xfe, 0x04, 0xfd, 0x03, 0xff, 0x01,
  0x00, 0xfe, 0xfe, 0xff, 0x01, 0x02, 0xff, 0xfd, 0xff, 0xfd, 0x02, 0xfe,
  0x01, 0x07, 0xfe, 0xff, 0x02, 0x06, 0xfb, 0x00, 0x02, 0xfe, 0x03, 0xff,
  0x02, 0x01, 0xff, 0xff, 0xff, 0x00, 0xfe, 0xff, 0x01, 0xfd, 0x03, 0x03,
  0x01, 0xff, 0xfd, 0x00, 0xfd, 0x04, 0x05, 0x00, 0xfe, 0x00, 0xfe, 0x00,
  0x01, 0x02, 0x01, 0x02, 0x01, 0x01, 0xff, 0xff, 0x00, 0xfe, 0x02, 0x00,
  0x02, 0x02, 0xfd, 0xfe, 0xfe, 0x00, 0xfe, 0x02, 0xfe, 0xff, 0xfe, 0x00,
  0x01, 0xfd, 0x00, 0x02, 0x02, 0xff, 0xfe, 0x02, 0xff, 0xff, 0x00, 0x02,
  0x01, 0x01, 0x00, 0x00, 0x00, 0xff, 0x01, 0xfe, 0x00, 0x01, 0x01, 0x01,
  0x01, 0x01, 0x02, 0x01, 0x00, 0x03, 0x00, 0xfe, 0x00, 0xff, 0x00, 0x01,
  0xff, 0x00, 0x01, 0x00, 0x03, 0x00, 0xfe, 0x00, 0x01, 0xff, 0xff, 0x00,
  0xff, 0xfe, 0xff, 0x03, 0x01, 0xfe, 0x02, 0x00, 0x03, 0x00, 0xff, 0x02,
  0x01, 0x00, 0xfe, 0x01, 0x02, 0x01, 0x00, 0xfe, 0x01, 0x00, 0x00, 0x01,
  0x01, 0xff, 0x01, 0xff, 0xfc, 0xff, 0xfd, 0xfe, 0xff, 0x04, 0x04, 0x02,
  0xe7, 0x3a, 0xe9, 0xea, 0x47, 0xd3, 0x0a, 0xe7, 0x17, 0xa6, 0x16, 0x30,
  0xfb, 0xe9, 0x1a, 0x02, 0xf3, 0x1a, 0xfd, 0xf1, 0x09, 0xda, 0x06, 0xe9,
  0x08, 0x0e, 0xd0, 0xd1, 0xfa, 0x14, 0xdd, 0x01, 0x01, 0x0d, 0x06, 0xf8,
  0x0c, 0xf5, 0x01, 0x06, 0xec, 0xfe, 0x11, 0x04, 0xeb, 0x05, 0x0b, 0xf1,
  0x15, 0xf4, 0x1f, 0x05, 0xd5, 0x01, 0xcf, 0xf4, 0x0a, 0xfc, 0xfd, 0x0b,
  0xe0, 0xe4, 0x30, 0x0a, 0x0c, 0xfa, 0xff, 0xf3, 0xff, 0x05, 0xff, 0xff,
  0x06, 0x1b, 0x02, 0x01, 0xe1, 0xe4, 0xed, 0xff, 0xff, 0x03, 0x02, 0xfb,
  0x0a, 0xfd, 0xf2, 0x04, 0x02, 0x09, 0xfa, 0x04, 0x08, 0xfe, 0x01, 0x02,
  0x07, 0x0b, 0x09, 0x09, 0x00, 0x00, 0x0c, 0x07, 0x14, 0xf5, 0x07, 0x05,
  0xf9, 0x07, 0x03, 0xfd, 0xf9, 0xfb, 0x0c, 0xfe, 0x0d, 0xf1, 0x01, 0x03,
  0x13, 0xf6, 0x00, 0xea, 0xf8, 0xe9, 0xf2, 0xf1, 0x06, 0x0c, 0x02, 0xff,
  0xfc, 0xf3, 0x04, 0xec, 0x07, 0x03, 0xfc, 0x05, 0xff, 0xf1, 0x00, 0x05,
  0xc5, 0x04, 0xf2, 0x36, 0xf6, 0x22, 0x25, 0xd5, 0xde, 0x00, 0xc4, 0x2e,
  0xfb, 0xdf, 0x0d, 0xd6, 0xf9, 0x08, 0x01, 0xff, 0xf7, 0x0b, 0xfd, 0x06,
  0xf7, 0xee, 0xff, 0xe5, 0x02, 0xf8, 0x00, 0x0e, 0xea, 0xef, 0x1b, 0xf5,
  0x07, 0x1c, 0xd3, 0xeb, 0xfb, 0xf1, 0x03, 0xde, 0x14, 0x14, 0xf0, 0x1b,
  0xf4, 0xe6, 0xd8, 0xf8, 0xf5, 0xfa, 0xe0, 0xe8, 0x2d, 0xf2, 0x0b, 0x02,
  0x0b, 0x09, 0x11, 0xf2, 0xee, 0x06, 0x12, 0x08, 0xfd, 0xfd, 0xfd, 0xfd,
  0x10, 0x00, 0xfe, 0x05, 0x06, 0x0a, 0x00, 0xf2, 0x45, 0x00, 0xd2, 0xad,
  0xa6, 0xfa, 0x19, 0xf4, 0x5e, 0x4a, 0xf3, 0xd8, 0x31, 0x24, 0x40, 0x07,
  0x14, 0x04, 0xff, 0x96, 0x0c, 0x02, 0x19, 0x2c, 0x17, 0xf7, 0x02, 0xfe,
  0xd6, 0xf7, 0xfc, 0xe2, 0xfe, 0xff, 0xfc, 0xfd, 0x00, 0x01, 0x05, 0xfa,
  0x04, 0x01, 0xfe, 0xff, 0x03, 0xff, 0x01, 0xff, 0xfb, 0x00, 0xfd, 0x03,
  0x01, 0xfd, 0xfe, 0x05, 0xfc, 0x02, 0x04, 0x02, 0x03, 0xfd, 0xff, 0xfd,
  0x01, 0xfe, 0x01, 0x02, 0x03, 0x03, 0x02, 0x00, 0x00, 0xfe, 0xfd, 0x01,
  0xfb, 0xff, 0xfe, 0x01, 0x01, 0x02, 0x01, 0x03, 0x03, 0x02, 0x01, 0xfa,
  0x00, 0x00, 0x04, 0x02, 0xff, 0xfe, 0x00, 0x02, 0x01, 0x01, 0xfe, 0x01,
  0x00, 0x00, 0xfe, 0xff, 0xfe, 0x00, 0xfc, 0x05, 0x01, 0x01, 0x02, 0x01,
  0x01, 0x00, 0xfd, 0x03, 0x02, 0xff, 0xfe, 0xff, 0x03, 0x06, 0x00, 0x01,
  0xfd, 0x04, 0xff, 0xff, 0xfd, 0xff, 0x02, 0x00, 0x00, 0x01, 0xfe, 0x04,
  0x02, 0x02, 0xfd, 0x03, 0xfe, 0xff, 0xfe, 0x02, 0x02, 0x04, 0x03, 0xff,
  0xff, 0x00, 0xff, 0xff, 0xff, 0xff, 0xfc, 0x01, 0x00, 0xfe, 0x00, 0xfc,
  0xfe, 0xfa, 0x03, 0x01, 0x00, 0xff, 0x02, 0x02, 0x02, 0xfe, 0x02, 0x00,
  0x00, 0xfe, 0x03, 0x00, 0x01, 0xff, 0x04, 0x00, 0xfb, 0xf6, 0xff, 0xfd,
  0xfe, 0x03, 0x03, 0xfd, 0x03, 0xff, 0x03, 0x03, 0xff, 0x01, 0x06, 0xfe,
  0x01, 0x00, 0x02, 0xff, 0xfb, 0x02, 0x03, 0x00, 0x03, 0xfe, 0x02, 0xfd,
  0x00, 0x05, 0xfe, 0x05, 0xfb, 0x01, 0x02, 0x07, 0x04, 0xfe, 0xfd, 0xfc,
  0x01, 0xf9, 0x03, 0x09, 0xf9, 0x02, 0x01, 0xfd, 0xff, 0xff, 0x00, 0x01,
  0x01, 0x05, 0x01, 0x01, 0xfd, 0x02, 0x05, 0x03, 0x06, 0x00, 0x00, 0x04,
  0x0b, 0x03, 0xfd, 0xfc, 0x01, 0x03, 0x04, 0xfa, 0xfc, 0x00, 0x0b, 0xff,
  0x02, 0x00, 0x01, 0x02, 0xff, 0xfc, 0x00, 0x01, 0xff, 0xff, 0xfd, 0xfe,
  0x00, 0x02, 0xfd, 0xfe, 0x00, 0x03, 0x00, 0x05, 0x00, 0xfc, 0x00, 0x01,
  0x02, 0x00, 0x02, 0x01, 0x00, 0x02, 0xfe, 0x03, 0x6a, 0xcd, 0xff, 0xff,
  0x04, 0x00, 0x00, 0x00, 0xc0, 0x00, 0x00, 0x00, 0x00, 0x00, 0x00, 0xc0,
  0x00, 0x00, 0x00, 0x40, 0x00, 0x00, 0x00, 0xc0, 0xc0, 0xff, 0xff, 0x3f,
  0x00, 0x00, 0x00, 0x40, 0x00, 0x00, 0x00, 0x40, 0x00, 0x00, 0x00, 0xc0,
  0x40, 0x00, 0x00, 0xc0, 0x00, 0x00, 0x00, 0xc0, 0x00, 0x00, 0x00, 0xc0,
  0x00, 0x00, 0x00, 0xc0, 0x40, 0x00, 0x00, 0xc0, 0x00, 0x00, 0x00, 0xc0,
  0x00, 0x00, 0x00, 0xc0, 0x00, 0x00, 0x00, 0xc0, 0x00, 0x00, 0x00, 0xc0,
  0x00, 0x00, 0x00, 0x40, 0x00, 0x00, 0x00, 0x40, 0x00, 0x00, 0x00, 0x40,
  0x00, 0x00, 0x00, 0x40, 0x00, 0x00, 0x00, 0x40, 0x00, 0x00, 0x00, 0x40,
  0x00, 0x00, 0x00, 0x40, 0x00, 0x00, 0x00, 0x40, 0x00, 0x00, 0x00, 0xc0,
  0x00, 0x00, 0x00, 0x40, 0xc0, 0xff, 0xff, 0x3f, 0x00, 0x00, 0x00, 0x40,
  0x00, 0x00, 0x00, 0x40, 0x40, 0x00, 0x00, 0xc0, 0x00, 0x00, 0x00, 0xc0,
  0x00, 0x00, 0x00, 0xc0, 0x40, 0x00, 0x00, 0xc0, 0x00, 0x00, 0x00, 0x40,
  0x00, 0x00, 0x00, 0x40, 0x00, 0x00, 0x00, 0x40, 0x00, 0x00, 0x00, 0x40,
  0x00, 0x00, 0x00, 0x40, 0x00, 0x00, 0x00, 0x40, 0x00, 0x00, 0x00, 0x40,
  0x00, 0x00, 0x00, 0xc0, 0xc0, 0xff, 0xff, 0x3f, 0x00, 0x00, 0x00, 0xc0,
  0x00, 0x00, 0x00, 0xc0, 0x00, 0x00, 0x00, 0xc0, 0x00, 0x00, 0x00, 0xc0,
  0x00, 0x00, 0x00, 0xc0, 0x00, 0x00, 0x00, 0x40, 0x36, 0xce, 0xff, 0xff,
  0x04, 0x00, 0x00, 0x00, 0x00, 0x03, 0x00, 0x00, 0xfb, 0xe9, 0x26, 0xf6,
  0x13, 0x08, 0x22, 0xed, 0x00, 0x33, 0xfc, 0x81, 0xee, 0xfd, 0x28, 0xff,
  0x17, 0xaf, 0x1c, 0xff, 0x19, 0xdd, 0x13, 0xfc, 0x81, 0xdc, 0x07, 0x17,
  0xec, 0x04, 0xbe, 0xee, 0x23, 0xe9, 0xf8, 0x0c, 0x7f, 0x1d, 0xf1, 0x76,
  0xf3, 0x10, 0x2e, 0x17, 0x5d, 0xde, 0xe0, 0xdd, 0x13, 0xca, 0x39, 0xe2,
  0xef, 0xdf, 0x0c, 0xed, 0x03, 0x2a, 0xd6, 0x81, 0xbe, 0xf1, 0x20, 0x01,
  0x0c, 0xe7, 0x07, 0xec, 0xf7, 0xfd, 0x11, 0xf9, 0x05, 0x1b, 0xf0, 0x81,
  0xeb, 0xfc, 0x0e, 0x11, 0xe6, 0xf1, 0xf7, 0x00, 0x0f, 0xf3, 0xd8, 0x09,
  0x81, 0x06, 0xe8, 0xfe, 0xcb, 0x1f, 0x03, 0x10, 0x62, 0x0a, 0x01, 0xf5,
  0x70, 0x31, 0xc9, 0x7f, 0xf6, 0x04, 0x45, 0xde, 0x0e, 0x23, 0x61, 0x37,
  0x22, 0xcf, 0x08, 0xfd, 0x46, 0x33, 0xdd, 0x2e, 0x81, 0x86, 0x09, 0x21,
  0x2c, 0x19, 0x10, 0x14, 0x3a, 0x28, 0x32, 0xfb, 0xaa, 0xd1, 0x4e, 0x1c,
  0x91, 0x7f, 0x0e, 0x92, 0xb3, 0x05, 0x1a, 0x39, 0x22, 0xfc, 0xf8, 0x1b,
  0x57, 0xee, 0x15, 0x7f, 0xe4, 0xff, 0x0c, 0x42, 0x2e, 0xe7, 0x21, 0x3a,
  0xda, 0x0c, 0x08, 0xed, 0x1e, 0x00, 0x4d, 0x02, 0x81, 0xf9, 0x00, 0x12,
  0xe2, 0x05, 0xee, 0xa2, 0xc7, 0x01, 0x2d, 0x05, 0x15, 0xd5, 0xcf, 0x2d,
  0x81, 0xdc, 0x3b, 0x1d, 0xe1, 0x18, 0x2f, 0xfe, 0x02, 0x2d, 0xe2, 0x15,
  0x24, 0x10, 0x4f, 0x23, 0xe7, 0xdd, 0x5a, 0x7f, 0x2a, 0x3d, 0x1a, 0x17,
  0xea, 0x7f, 0xdb, 0x29, 0xe2, 0xd7, 0x57, 0x24, 0x41, 0x29, 0x38, 0xed,
  0x3b, 0x21, 0x5a, 0xe9, 0xd3, 0x60, 0xf4, 0x73, 0x56, 0xff, 0x4e, 0x1d,
  0xcb, 0x35, 0x72, 0x7f, 0x14, 0x40, 0x64, 0x6d, 0x9a, 0x23, 0xfd, 0x5d,
  0x50, 0x48, 0xed, 0x64, 0xf8, 0x6e, 0x66, 0xf8, 0x0e, 0xdd, 0x51, 0x7f,
  0x10, 0x12, 0xdd, 0x3e, 0x05, 0x4e, 0x81, 0x30, 0x11, 0xcb, 0x4d, 0x25,
  0x13, 0xd8, 0x82, 0xfb, 0xa9, 0x7f, 0xb6, 0x14, 0xa3, 0x64, 0xbe, 0xe2,
  0x42, 0xe2, 0x29, 0x90, 0xe0, 0x20, 0xb1, 0xf5, 0xc4, 0x38, 0xce, 0x41,
  0xbe, 0x4f, 0x11, 0x98, 0x47, 0xcd, 0x32, 0xb6, 0x81, 0xda, 0xca, 0xec,
  0xcc, 0x28, 0xbe, 0x22, 0xe3, 0x24, 0x81, 0xf5, 0xfb, 0xa9, 0xf6, 0xe3,
  0xdd, 0xd0, 0xd2, 0xcc, 0xf1, 0x07, 0xd3, 0x25, 0x1b, 0x1d, 0x91, 0xfd,
  0xf8, 0x81, 0x31, 0x30, 0xd4, 0xfd, 0xe0, 0xcc, 0x0a, 0x5d, 0xb7, 0x05,
  0xd1, 0x2c, 0xf9, 0xf4, 0x2e, 0xe6, 0x5f, 0x81, 0xb6, 0xe3, 0xf5, 0xb3,
  0xcb, 0x35, 0xe6, 0x7f, 0xb4, 0x57, 0xf6, 0x9f, 0x21, 0x0b, 0x2b, 0xfc,
  0xc6, 0xe8, 0xbe, 0xc2, 0xd7, 0x46, 0xda, 0x7f, 0xca, 0x6a, 0x05, 0xea,
  0x12, 0x25, 0x2d, 0xdb, 0xd2, 0xf3, 0xd3, 0xfb, 0xee, 0x44, 0xc9, 0x56,
  0x0e, 0x7f, 0x0f, 0x36, 0x1f, 0x0b, 0x7d, 0xe9, 0xec, 0xe8, 0xba, 0xd3,
  0xce, 0x55, 0xd0, 0x57, 0xcd, 0x26, 0xfb, 0x81, 0x2e, 0xd2, 0x48, 0xda,
  0xb7, 0xed, 0xd4, 0xbe, 0xe4, 0x1e, 0xa8, 0x54, 0xc6, 0x33, 0x81, 0xe1,
  0x2d, 0xf0, 0x30, 0xcd, 0xbc, 0xe7, 0x03, 0x03, 0xf8, 0x12, 0xc8, 0x40,
  0xae, 0x4c, 0x0a, 0xeb, 0x3b, 0xd4, 0x32, 0x81, 0xda, 0xea, 0xb2, 0xae,
  0xbc, 0x7f, 0xa0, 0x57, 0xf6, 0x57, 0x1e, 0x37, 0x2a, 0xca, 0x78, 0xd7,
  0xeb, 0xe4, 0xc9, 0xf4, 0xb6, 0x7f, 0xc5, 0x23, 0xfb, 0x08, 0xea, 0x1c,
  0x1e, 0xe5, 0x6e, 0xd6, 0xbf, 0xec, 0xce, 0xf2, 0xd0, 0x52, 0xcb, 0x7f,
  0xf4, 0x35, 0xf1, 0x18, 0x23, 0x10, 0x60, 0xe1, 0xc9, 0xf0, 0xdf, 0xeb,
  0xcf, 0x32, 0xe9, 0x7f, 0xc9, 0x3f, 0xfa, 0xe3, 0x27, 0x00, 0x3e, 0xef,
  0xd7, 0xf1, 0xc2, 0xe3, 0x0b, 0xf6, 0x0a, 0x05, 0xe7, 0xfa, 0x7f, 0x00,
  0x11, 0x57, 0xfd, 0xf5, 0x1f, 0x15, 0x7f, 0x0c, 0xae, 0x2a, 0xc2, 0x0e,
  0xef, 0x43, 0x81, 0xe8, 0x02, 0xdd, 0x0b, 0x8f, 0xe1, 0xfd, 0xf9, 0xd5,
  0xf3, 0x14, 0xd3, 0x1c, 0xdc, 0x19, 0xdd, 0x92, 0x27, 0xf1, 0x4a, 0xc3,
  0x81, 0xe5, 0xd1, 0xcd, 0xe4, 0xfe, 0x07, 0xe8, 0x00, 0xf5, 0x81, 0xff,
  0xdc, 0xa4, 0x05, 0x1a, 0xf1, 0x0f, 0x01, 0xc4, 0xdc, 0x01, 0xe5, 0x12,
  0x16, 0x08, 0x9b, 0xfe, 0xdc, 0x81, 0x1c, 0xf2, 0xd8, 0xf9, 0xf6, 0x9a,
  0xd1, 0x13, 0xe4, 0x17, 0xde, 0x3c, 0xd6, 0xe1, 0x0d, 0xcb, 0x1c, 0x81,
  0xe4, 0xf0, 0xdb, 0xbd, 0xab, 0x19, 0xcd, 0x1d, 0xb2, 0x05, 0x04, 0x91,
  0x34, 0xd0, 0x14, 0xd5, 0x9f, 0xcc, 0xa2, 0x81, 0xf1, 0x28, 0xbc, 0x0a,
  0xd5, 0x31, 0xfd, 0xd4, 0x1a, 0xe8, 0x09, 0x81, 0xa5, 0xe0, 0xd1, 0xdf,
  0xf5, 0x9a, 0x25, 0xd6, 0x1d, 0xc6, 0x5a, 0xf0, 0x25, 0x3d, 0xc8, 0x50,
  0x7f, 0x11, 0x51, 0x30, 0xd6, 0x4b, 0xe1, 0x3b, 0xce, 0x2f, 0xef, 0x81,
  0x25, 0xe0, 0x14, 0xc9, 0xf2, 0xf7, 0xeb, 0xcd, 0x2b, 0xe9, 0x2d, 0xf5,
  0x14, 0xd7, 0x7f, 0x08, 0xf9, 0x2c, 0xe0, 0x21, 0x25, 0x0e, 0x19, 0xf3,
  0xf9, 0x02, 0x23, 0xe6, 0x37, 0xb0, 0xfc, 0xe7, 0xd3, 0x37, 0xc9, 0x7f,
  0x47, 0x37, 0x46, 0x38, 0x41, 0x81, 0x74, 0xd3, 0xeb, 0x99, 0xe7, 0xd3,
  0xa7, 0x31, 0xa2, 0x56, 0x34, 0x43, 0x37, 0x06, 0x46, 0x81, 0x1f, 0xc7,
  0x09, 0xfa, 0x39, 0xd4, 0xe1, 0xf4, 0x94, 0x41, 0x38, 0x00, 0x0f, 0x07,
  0x3c, 0x9f, 0x43, 0x81, 0x21, 0xba, 0x0d, 0xde, 0xe4, 0x02, 0xa3, 0x2c,
  0x32, 0x1f, 0x28, 0xfd, 0xe3, 0x0e, 0xd7, 0x7f, 0xc9, 0x34, 0xfe, 0xf1,
  0x17, 0xf0, 0x4c, 0xe8, 0xe9, 0xd6, 0xd2, 0xe3, 0x42, 0xd1, 0xff, 0xff,
  0x04, 0x00, 0x00, 0x00, 0xc0, 0x00, 0x00, 0x00, 0xeb, 0xff, 0xff, 0xff,
  0x0b, 0x00, 0x00, 0x00, 0xa3, 0xfe, 0xff, 0xff, 0x63, 0x01, 0x00, 0x00,
  0x4f, 0x00, 0x00, 0x00, 0x3c, 0x00, 0x00, 0x00, 0xa5, 0xfe, 0xff, 0xff,
  0x38, 0xff, 0xff, 0xff, 0x34, 0xfe, 0xff, 0xff, 0xd5, 0xfe, 0xff, 0xff,
  0xb0, 0xfe, 0xff, 0xff, 0x50, 0xfe, 0xff, 0xff, 0x52, 0xfd, 0xff, 0xff,
  0x51, 0xfd, 0xff, 0xff, 0xff, 0xfc, 0xff, 0xff, 0x6d, 0xfe, 0xff, 0xff,
  0x17, 0x00, 0x00, 0x00, 0x30, 0x00, 0x00, 0x00, 0x4b, 0x00, 0x00, 0x00,
  0x24, 0x00, 0x00, 0x00, 0x22, 0x00, 0x00, 0x00, 0xae, 0x00, 0x00, 0x00,
  0x4e, 0x00, 0x00, 0x00, 0x2a, 0x00, 0x00, 0x00, 0xb4, 0xff, 0xff, 0xff,
  0x1b, 0x00, 0x00, 0x00, 0x47, 0x00, 0x00, 0x00, 0x2d, 0x00, 0x00, 0x00,
  0x27, 0x00, 0x00, 0x00, 0xc3, 0xff, 0xff, 0xff, 0xf9, 0xff, 0xff, 0xff,
  0xf3, 0xff, 0xff, 0xff, 0x81, 0xff, 0xff, 0xff, 0x93, 0x00, 0x00, 0x00,
  0x38, 0x00, 0x00, 0x00, 0xae, 0x00, 0x00, 0x00, 0x7d, 0x00, 0x00, 0x00,
  0xc3, 0x00, 0x00, 0x00, 0x80, 0x00, 0x00, 0x00, 0x66, 0x00, 0x00, 0x00,
  0xb3, 0xff, 0xff, 0xff, 0x0f, 0x00, 0x00, 0x00, 0xb4, 0xff, 0xff, 0xff,
  0x9c, 0xff, 0xff, 0xff, 0xe9, 0xff, 0xff, 0xff, 0x4b, 0x00, 0x00, 0x00,
  0x09, 0x00, 0x00, 0x00, 0x07, 0x00, 0x00, 0x00, 0x0e, 0xd2, 0xff, 0xff,
  0x04, 0x00, 0x00, 0x00, 0x01, 0x00, 0x00, 0x00, 0x7f, 0x00, 0x00, 0x00,
  0x18, 0xbc, 0xff, 0xff, 0x22, 0xd2, 0xff, 0xff, 0x04, 0x00, 0x00, 0x00,
  0x04, 0x00, 0x00, 0x00, 0xff, 0xff, 0xff, 0xff, 0x32, 0xd2, 0xff, 0xff,
  0x04, 0x00, 0x00, 0x00, 0x08, 0x00, 0x00, 0x00, 0x00, 0x00, 0x00, 0x00,
  0x20, 0x00, 0x00, 0x00, 0x46, 0xd2, 0xff, 0xff, 0x04, 0x00, 0x00, 0x00,
  0x08, 0x00, 0x00, 0x00, 0x01, 0x00, 0x00, 0x00, 0x01, 0x00, 0x00, 0x00,
  0x5a, 0xd2, 0xff, 0xff, 0x04, 0x00, 0x00, 0x00, 0x08, 0x00, 0x00, 0x00,
  0x00, 0x00, 0x00, 0x00, 0x10, 0x00, 0x00, 0x00, 0x6e, 0xd2, 0xff, 0xff,
  0x04, 0x00, 0x00, 0x00, 0x08, 0x00, 0x00, 0x00, 0x00, 0x00, 0x00, 0x00,
  0x00, 0x00, 0x00, 0x00, 0x7c, 0xbc, 0xff, 0xff, 0x80, 0xbc, 0xff, 0xff,
  0x84, 0xbc, 0xff, 0xff, 0x88, 0xbc, 0xff, 0xff, 0x8c, 0xbc, 0xff, 0xff,
  0x90, 0xbc, 0xff, 0xff, 0x94, 0xbc, 0xff, 0xff, 0x98, 0xbc, 0xff, 0xff,
  0x9c, 0xbc, 0xff, 0xff, 0xa0, 0xbc, 0xff, 0xff, 0xa4, 0xbc, 0xff, 0xff,
  0xa8, 0xbc, 0xff, 0xff, 0xac, 0xbc, 0xff, 0xff, 0xb0, 0xbc, 0xff, 0xff,
  0xb4, 0xbc, 0xff, 0xff, 0xb8, 0xbc, 0xff, 0xff, 0xbc, 0xbc, 0xff, 0xff,
  0xc0, 0xbc, 0xff, 0xff, 0xc4, 0xbc, 0xff, 0xff, 0xc8, 0xbc, 0xff, 0xff,
  0xcc, 0xbc, 0xff, 0xff, 0xd0, 0xbc, 0xff, 0xff, 0xd4, 0xbc, 0xff, 0xff,
  0xd8, 0xbc, 0xff, 0xff, 0xdc, 0xbc, 0xff, 0xff, 0xe0, 0xbc, 0xff, 0xff,
  0xe4, 0xbc, 0xff, 0xff, 0xe8, 0xbc, 0xff, 0xff, 0xec, 0xbc, 0xff, 0xff,
  0xf0, 0xbc, 0xff, 0xff, 0xf4, 0xbc, 0xff, 0xff, 0xf8, 0xbc, 0xff, 0xff,
  0xfc, 0xbc, 0xff, 0xff, 0x00, 0xbd, 0xff, 0xff, 0x04, 0xbd, 0xff, 0xff,
  0x08, 0xbd, 0xff, 0xff, 0x0c, 0xbd, 0xff, 0xff, 0x10, 0xbd, 0xff, 0xff,
  0x1a, 0xd3, 0xff, 0xff, 0x04, 0x00, 0x00, 0x00, 0x00, 0x01, 0x00, 0x00,
  0xf6, 0xf8, 0xf6, 0x0d, 0x1c, 0x0e, 0x04, 0x06, 0x37, 0x08, 0xc0, 0x7f,
  0xfa, 0x3d, 0x07, 0x3e, 0xee, 0xf9, 0x05, 0xeb, 0x62, 0x1f, 0x95, 0xee,
  0xc4, 0xad, 0x7f, 0xa0, 0xc1, 0xff, 0x92, 0x37, 0xfb, 0xcf, 0xcd, 0xef,
  0x0e, 0xed, 0xf9, 0xfc, 0xad, 0xc9, 0x7f, 0x26, 0xd4, 0xd2, 0x3f, 0xe4,
  0x10, 0xeb, 0x0e, 0x15, 0xfd, 0xf8, 0xfb, 0xf0, 0x2d, 0xeb, 0x1e, 0xff,
  0xe9, 0xc7, 0x7f, 0x0a, 0x08, 0x1c, 0x17, 0x4b, 0x02, 0x00, 0x11, 0x0b,
  0xd6, 0x24, 0xaa, 0xc5, 0xd2, 0xc4, 0xea, 0x7f, 0xf2, 0xc6, 0x13, 0xf8,
  0xbc, 0x81, 0x4e, 0x28, 0x8c, 0x1b, 0xf7, 0xe8, 0xe7, 0xbf, 0xf6, 0x04,
  0xfc, 0x0e, 0x19, 0xfa, 0x04, 0xfd, 0xfa, 0xfd, 0x0c, 0xff, 0x49, 0x81,
  0xf8, 0xe1, 0xec, 0xe7, 0xe3, 0xd9, 0xd2, 0x30, 0xf7, 0x0d, 0xcc, 0xf7,
  0x00, 0x09, 0x13, 0x3e, 0x17, 0xed, 0xc8, 0x7f, 0xd0, 0x2f, 0xce, 0xdc,
  0x3c, 0xd8, 0xe9, 0xd4, 0x8a, 0xf6, 0x2c, 0x2b, 0x3f, 0xe0, 0xc3, 0x81,
  0x22, 0x81, 0x1a, 0xe9, 0xd2, 0xf7, 0x21, 0xbd, 0x18, 0x19, 0xdc, 0xdd,
  0x11, 0x0f, 0x18, 0x06, 0x0d, 0xe6, 0xd6, 0x14, 0xf7, 0x0e, 0x12, 0xcd,
  0xe1, 0x19, 0xd5, 0x7f, 0xd9, 0x4e, 0x0a, 0xe9, 0x00, 0x04, 0x0f, 0x00,
  0xed, 0xf2, 0x02, 0x02, 0x9a, 0xbd, 0x99, 0x7f, 0xce, 0xcc, 0xc4, 0xa3,
  0xf8, 0x0c, 0x03, 0x7f, 0x10, 0x0d, 0x14, 0x15, 0xd0, 0xbc, 0xd8, 0x14,
  0xff, 0xdd, 0xdc, 0xdc, 0xeb, 0x0c, 0x0c, 0x33, 0xee, 0xc7, 0x05, 0xfa,
  0x8f, 0x4a, 0x4e, 0x16, 0x81, 0x30, 0x01, 0x01, 0x2b, 0x44, 0xb4, 0xc8,
  0xe8, 0xe8, 0xe0, 0xcf, 0x20, 0x7f, 0x0c, 0xd6, 0xdd, 0x4b, 0x03, 0x0f,
  0xfe, 0x47, 0x49, 0xc6, 0x03, 0xb7, 0xed, 0xf5, 0x7f, 0x1d, 0x27, 0x0b,
  0x5f, 0x15, 0x37, 0x0e, 0x26, 0xd4, 0xff, 0xff, 0x04, 0x00, 0x00, 0x00,
  0x40, 0x00, 0x00, 0x00, 0xc5, 0x00, 0x00, 0x00, 0x7f, 0xff, 0xff, 0xff,
  0x27, 0x01, 0x00, 0x00, 0x23, 0x00, 0x00, 0x00, 0xe9, 0xff, 0xff, 0xff,
  0x8d, 0xff, 0xff, 0xff, 0x6c, 0xff, 0xff, 0xff, 0xd7, 0xff, 0xff, 0xff,
  0x45, 0x00, 0x00, 0x00, 0x09, 0x00, 0x00, 0x00, 0x58, 0x00, 0x00, 0x00,
  0xb2, 0xff, 0xff, 0xff, 0xa3, 0xff, 0xff, 0xff, 0x83, 0x00, 0x00, 0x00,
  0xd6, 0xff, 0xff, 0xff, 0xf3, 0x00, 0x00, 0x00, 0x72, 0xd4, 0xff, 0xff,
  0x04, 0x00, 0x00, 0x00, 0x01, 0x00, 0x00, 0x00, 0x00, 0x00, 0x00, 0x00,
  0x82, 0xd4, 0xff, 0xff, 0x04, 0x00, 0x00, 0x00, 0x10, 0x00, 0x00, 0x00,
  0xbf, 0x35, 0x56, 0x3c, 0x40, 0x35, 0x4f, 0x3b, 0xcf, 0x59, 0xc4, 0xb5,
  0xab, 0xb7, 0x96, 0x7f, 0x9e, 0xd4, 0xff, 0xff, 0x04, 0x00, 0x00, 0x00,
  0x04, 0x00, 0x00, 0x00, 0xfd, 0x02, 0x00, 0x00, 0xae, 0xd4, 0xff, 0xff,
  0x04, 0x00, 0x00, 0x00, 0x0c, 0x00, 0x00, 0x00, 0x01, 0x00, 0x00, 0x00,
  0x01, 0x00, 0x00, 0x00, 0x01, 0x00, 0x00, 0x00, 0xc6, 0xd4, 0xff, 0xff,
  0x04, 0x00, 0x00, 0x00, 0x0c, 0x00, 0x00, 0x00, 0x00, 0x00, 0x00, 0x00,
  0x00, 0x00, 0x00, 0x00, 0x10, 0x00, 0x00, 0x00, 0xde, 0xd4, 0xff, 0xff,
  0x04, 0x00, 0x00, 0x00, 0x0c, 0x00, 0x00, 0x00, 0xff, 0xff, 0xff, 0xff,
  0x00, 0x00, 0x00, 0x00, 0x00, 0x00, 0x00, 0x00, 0xf0, 0xbe, 0xff, 0xff,
  0xfa, 0xd4, 0xff, 0xff, 0x04, 0x00, 0x00, 0x00, 0x0c, 0x00, 0x00, 0x00,
  0x01, 0x00, 0x00, 0x00, 0x00, 0x00, 0x00, 0x00, 0x02, 0x00, 0x00, 0x00,
  0x12, 0xd5, 0xff, 0xff, 0x04, 0x00, 0x00, 0x00, 0x04, 0x00, 0x00, 0x00,
  0x10, 0x00, 0x00, 0x00, 0x1c, 0xbf, 0xff, 0xff, 0x26, 0xd5, 0xff, 0xff,
  0x04, 0x00, 0x00, 0x00, 0x04, 0x00, 0x00, 0x00, 0x00, 0x00, 0x00, 0x00,
  0x36, 0xd5, 0xff, 0xff, 0x04, 0x00, 0x00, 0x00, 0x0c, 0x00, 0x00, 0x00,
  0xff, 0xff, 0xff, 0xff, 0x01, 0x00, 0x00, 0x00, 0x10, 0x00, 0x00, 0x00,
  0x4e, 0xd5, 0xff, 0xff, 0x04, 0x00, 0x00, 0x00, 0x04, 0x00, 0x00, 0x00,
  0x01, 0x00, 0x00, 0x00, 0x5e, 0xd5, 0xff, 0xff, 0x04, 0x00, 0x00, 0x00,
  0x08, 0x00, 0x00, 0x00, 0xff, 0xff, 0xff, 0xff, 0x10, 0x00, 0x00, 0x00,
  0x72, 0xd5, 0xff, 0xff, 0x04, 0x00, 0x00, 0x00, 0x04, 0x00, 0x00, 0x00,
  0xfd, 0xff, 0xff, 0xff, 0x7c, 0xbf, 0xff, 0xff, 0x80, 0xbf, 0xff, 0xff,
  0x0f, 0x00, 0x00, 0x00, 0x4d, 0x4c, 0x49, 0x52, 0x20, 0x43, 0x6f, 0x6e,
  0x76, 0x65, 0x72, 0x74, 0x65, 0x64, 0x2e, 0x00, 0x03, 0x00, 0x00, 0x00,
  0x80, 0x27, 0x00, 0x00, 0x84, 0x23, 0x00, 0x00, 0x04, 0x00, 0x00, 0x00,
  0x9a, 0xd8, 0xff, 0xff, 0x14, 0x00, 0x00, 0x00, 0x34, 0x00, 0x00, 0x00,
  0xc8, 0x05, 0x00, 0x00, 0xdc, 0x05, 0x00, 0x00, 0xf0, 0x05, 0x00, 0x00,
  0x1d, 0x00, 0x00, 0x00, 0x73, 0x65, 0x71, 0x75, 0x65, 0x6e, 0x74, 0x69,
  0x61, 0x6c, 0x5f, 0x31, 0x2f, 0x67, 0x72, 0x75, 0x5f, 0x31, 0x2f, 0x77,
  0x68, 0x69, 0x6c, 0x65, 0x5f, 0x62, 0x6f, 0x64, 0x79, 0x00, 0x00, 0x00,
  0x18, 0x00, 0x00, 0x00, 0x78, 0x05, 0x00, 0x00, 0x58, 0x05, 0x00, 0x00,
  0x24, 0x05, 0x00, 0x00, 0xec, 0x04, 0x00, 0x00, 0xa8, 0x04, 0x00, 0x00,
  0x64, 0x04, 0x00, 0x00, 0x20, 0x04, 0x00, 0x00, 0xec, 0x03, 0x00, 0x00,
  0xb8, 0x03, 0x00, 0x00, 0x80, 0x03, 0x00, 0x00, 0x40, 0x03, 0x00, 0x00,
  0x0c, 0x03, 0x00, 0x00, 0xe8, 0x02, 0x00, 0x00, 0xb4, 0x02, 0x00, 0x00,
  0x80, 0x02, 0x00, 0x00, 0x4c, 0x02, 0x00, 0x00, 0x28, 0x02, 0x00, 0x00,
  0xf4, 0x01, 0x00, 0x00, 0xc0, 0x01, 0x00, 0x00, 0x9c, 0x01, 0x00, 0x00,
  0x68, 0x01, 0x00, 0x00, 0x34, 0x01, 0x00, 0x00, 0x10, 0x01, 0x00, 0x00,
  0x04, 0x00, 0x00, 0x00, 0x28, 0xd5, 0xff, 0xff, 0x10, 0x00, 0x00, 0x00,
  0xe8, 0x00, 0x00, 0x00, 0xec, 0x00, 0x00, 0x00, 0x17, 0x00, 0x00, 0x00,
  0xd7, 0x00, 0x00, 0x00, 0x11, 0x54, 0x65, 0x6e, 0x73, 0x6f, 0x72, 0x4c,
  0x69, 0x73, 0x74, 0x53, 0x65, 0x74, 0x49, 0x74, 0x65, 0x6d, 0x00, 0xba,
  0x12, 0x11, 0x54, 0x65, 0x6e, 0x73, 0x6f, 0x72, 0x4c, 0x69, 0x73, 0x74,
  0x53, 0x65, 0x74, 0x49, 0x74, 0x65, 0x6d, 0x1a, 0x00, 0x1a, 0x00, 0x1a,
  0x00, 0x2a, 0x13, 0x0a, 0x0d, 0x65, 0x6c, 0x65, 0x6d, 0x65, 0x6e, 0x74,
  0x5f, 0x64, 0x74, 0x79, 0x70, 0x65, 0x12, 0x02, 0x30, 0x01, 0x2a, 0x23,
  0x0a, 0x1d, 0x72, 0x65, 0x73, 0x69, 0x7a, 0x65, 0x5f, 0x69, 0x66, 0x5f,
  0x69, 0x6e, 0x64, 0x65, 0x78, 0x5f, 0x6f, 0x75, 0x74, 0x5f, 0x6f, 0x66,
  0x5f, 0x62, 0x6f, 0x75, 0x6e, 0x64, 0x73, 0x12, 0x02, 0x28, 0x00, 0x32,
  0x65, 0x0a, 0x3d, 0x73, 0x65, 0x71, 0x75, 0x65, 0x6e, 0x74, 0x69, 0x61,
  0x6c, 0x5f, 0x31, 0x2f, 0x67, 0x72, 0x75, 0x5f, 0x31, 0x2f, 0x77, 0x68,
  0x69, 0x6c, 0x65, 0x2f, 0x54, 0x65, 0x6e, 0x73, 0x6f, 0x72, 0x41, 0x72,
  0x72, 0x61, 0x79, 0x56, 0x32, 0x57, 0x72, 0x69, 0x74, 0x65, 0x2f, 0x54,
  0x65, 0x6e, 0x73, 0x6f, 0x72, 0x4c, 0x69, 0x73, 0x74, 0x53, 0x65, 0x74,
  0x49, 0x74, 0x65, 0x6d, 0x12, 0x24, 0x73, 0x65, 0x71, 0x75, 0x65, 0x6e,
  0x74, 0x69, 0x61, 0x6c, 0x5f, 0x31, 0x5f, 0x67, 0x72, 0x75, 0x5f, 0x31,
  0x5f, 0x77, 0x68, 0x69, 0x6c, 0x65, 0x5f, 0x62, 0x6f, 0x64, 0x79, 0x5f,
  0x31, 0x39, 0x35, 0x33, 0x37, 0x37, 0x00, 0x02, 0xcf, 0xbd, 0x14, 0x14,
  0x04, 0x28, 0x01, 0x00, 0x01, 0x00, 0x00, 0x00, 0x2a, 0x00, 0x00, 0x00,
  0x03, 0x00, 0x00, 0x00, 0x02, 0x00, 0x00, 0x00, 0x0b, 0x00, 0x00, 0x00,
  0x29, 0x00, 0x00, 0x00, 0xae, 0xd6, 0xff, 0xff, 0x0c, 0x00, 0x00, 0x00,
  0x10, 0x00, 0x00, 0x00, 0x09, 0x00, 0x00, 0x00, 0x01, 0x00, 0x00, 0x00,
  0x29, 0x00, 0x00, 0x00, 0x01, 0x00, 0x00, 0x00, 0x28, 0x00, 0x00, 0x00,
  0xb2, 0xd5, 0xff, 0xff, 0x14, 0x00, 0x00, 0x00, 0x00, 0x00, 0x00, 0x0b,
  0x10, 0x00, 0x00, 0x00, 0x14, 0x00, 0x00, 0x00, 0x11, 0x00, 0x00, 0x00,
  0x88, 0xc1, 0xff, 0xff, 0x01, 0x00, 0x00, 0x00, 0x28, 0x00, 0x00, 0x00,
  0x02, 0x00, 0x00, 0x00, 0x20, 0x00, 0x00, 0x00, 0x27, 0x00, 0x00, 0x00,
  0xe2, 0xd5, 0xff, 0xff, 0x14, 0x00, 0x00, 0x00, 0x00, 0x00, 0x00, 0x15,
  0x10, 0x00, 0x00, 0x00, 0x14, 0x00, 0x00, 0x00, 0x14, 0x00, 0x00, 0x00,
  0xb8, 0xc1, 0xff, 0xff, 0x01, 0x00, 0x00, 0x00, 0x27, 0x00, 0x00, 0x00,
  0x02, 0x00, 0x00, 0x00, 0x21, 0x00, 0x00, 0x00, 0x26, 0x00, 0x00, 0x00,
  0x2e, 0xd7, 0xff, 0xff, 0x0c, 0x00, 0x00, 0x00, 0x10, 0x00, 0x00, 0x00,
  0x16, 0x00, 0x00, 0x00, 0x01, 0x00, 0x00, 0x00, 0x26, 0x00, 0x00, 0x00,
  0x01, 0x00, 0x00, 0x00, 0x25, 0x00, 0x00, 0x00, 0x32, 0xd6, 0xff, 0xff,
  0x14, 0x00, 0x00, 0x00, 0x00, 0x00, 0x00, 0x0b, 0x10, 0x00, 0x00, 0x00,
  0x14, 0x00, 0x00, 0x00, 0x11, 0x00, 0x00, 0x00, 0x08, 0xc2, 0xff, 0xff,
  0x01, 0x00, 0x00, 0x00, 0x25, 0x00, 0x00, 0x00, 0x02, 0x00, 0x00, 0x00,
  0x1d, 0x00, 0x00, 0x00, 0x24, 0x00, 0x00, 0x00, 0x62, 0xd6, 0xff, 0xff,
  0x14, 0x00, 0x00, 0x00, 0x00, 0x00, 0x00, 0x15, 0x10, 0x00, 0x00, 0x00,
  0x14, 0x00, 0x00, 0x00, 0x14, 0x00, 0x00, 0x00, 0x38, 0xc2, 0xff, 0xff,
  0x01, 0x00, 0x00, 0x00, 0x24, 0x00, 0x00, 0x00, 0x02, 0x00, 0x00, 0x00,
  0x23, 0x00, 0x00, 0x00, 0x17, 0x00, 0x00, 0x00, 0xae, 0xd7, 0xff, 0xff,
  0x0c, 0x00, 0x00, 0x00, 0x10, 0x00, 0x00, 0x00, 0x0e, 0x00, 0x00, 0x00,
  0x01, 0x00, 0x00, 0x00, 0x23, 0x00, 0x00, 0x00, 0x01, 0x00, 0x00, 0x00,
  0x22, 0x00, 0x00, 0x00, 0xb2, 0xd6, 0xff, 0xff, 0x14, 0x00, 0x00, 0x00,
  0x00, 0x00, 0x00, 0x0b, 0x10, 0x00, 0x00, 0x00, 0x14, 0x00, 0x00, 0x00,
  0x11, 0x00, 0x00, 0x00, 0x88, 0xc2, 0xff, 0xff, 0x01, 0x00, 0x00, 0x00,
  0x22, 0x00, 0x00, 0x00, 0x02, 0x00, 0x00, 0x00, 0x1c, 0x00, 0x00, 0x00,
  0x16, 0x00, 0x00, 0x00, 0xe2, 0xd6, 0xff, 0xff, 0x14, 0x00, 0x00, 0x00,
  0x00, 0x00, 0x00, 0x1c, 0x10, 0x00, 0x00, 0x00, 0x14, 0x00, 0x00, 0x00,
  0x15, 0x00, 0x00, 0x00, 0xb8, 0xc2, 0xff, 0xff, 0x01, 0x00, 0x00, 0x00,
  0x21, 0x00, 0x00, 0x00, 0x02, 0x00, 0x00, 0x00, 0x0c, 0x00, 0x00, 0x00,
  0x1f, 0x00, 0x00, 0x00, 0x12, 0xd7, 0xff, 0xff, 0x14, 0x00, 0x00, 0x00,
  0x00, 0x00, 0x00, 0x15, 0x10, 0x00, 0x00, 0x00, 0x14, 0x00, 0x00, 0x00,
  0x14, 0x00, 0x00, 0x00, 0xe8, 0xc2, 0xff, 0xff, 0x01, 0x00, 0x00, 0x00,
  0x20, 0x00, 0x00, 0x00, 0x02, 0x00, 0x00, 0x00, 0x1f, 0x00, 0x00, 0x00,
  0x11, 0x00, 0x00, 0x00, 0x5e, 0xd8, 0xff, 0xff, 0x0c, 0x00, 0x00, 0x00,
  0x10, 0x00, 0x00, 0x00, 0x0e, 0x00, 0x00, 0x00, 0x01, 0x00, 0x00, 0x00,
  0x1f, 0x00, 0x00, 0x00, 0x01, 0x00, 0x00, 0x00, 0x1e, 0x00, 0x00, 0x00,
  0x62, 0xd7, 0xff, 0xff, 0x14, 0x00, 0x00, 0x00, 0x00, 0x00, 0x00, 0x0b,
  0x10, 0x00, 0x00, 0x00, 0x14, 0x00, 0x00, 0x00, 0x11, 0x00, 0x00, 0x00,
  0x38, 0xc3, 0xff, 0xff, 0x01, 0x00, 0x00, 0x00, 0x1e, 0x00, 0x00, 0x00,
  0x02, 0x00, 0x00, 0x00, 0x1b, 0x00, 0x00, 0x00, 0x15, 0x00, 0x00, 0x00,
  0x92, 0xd7, 0xff, 0xff, 0x14, 0x00, 0x00, 0x00, 0x00, 0x00, 0x00, 0x23,
  0x14, 0x00, 0x00, 0x00, 0x20, 0x00, 0x00, 0x00, 0x13, 0x00, 0x00, 0x00,
  0x6e, 0xd9, 0xff, 0xff, 0x03, 0x00, 0x00, 0x00, 0x03, 0x00, 0x00, 0x00,
  0x1b, 0x00, 0x00, 0x00, 0x1c, 0x00, 0x00, 0x00, 0x1d, 0x00, 0x00, 0x00,
  0x02, 0x00, 0x00, 0x00, 0x0a, 0x00, 0x00, 0x00, 0x1a, 0x00, 0x00, 0x00,
  0xce, 0xd7, 0xff, 0xff, 0x14, 0x00, 0x00, 0x00, 0x00, 0x00, 0x00, 0x08,
  0x10, 0x00, 0x00, 0x00, 0x14, 0x00, 0x00, 0x00, 0x0d, 0x00, 0x00, 0x00,
  0xa4, 0xc3, 0xff, 0xff, 0x01, 0x00, 0x00, 0x00, 0x1a, 0x00, 0x00, 0x00,
  0x03, 0x00, 0x00, 0x00, 0x19, 0x00, 0x00, 0x00, 0x0e, 0x00, 0x00, 0x00,
  0x0d, 0x00, 0x00, 0x00, 0x02, 0xd8, 0xff, 0xff, 0x14, 0x00, 0x00, 0x00,
  0x00, 0x00, 0x00, 0x17, 0x10, 0x00, 0x00, 0x00, 0x14, 0x00, 0x00, 0x00,
  0x12, 0x00, 0x00, 0x00, 0xd8, 0xc3, 0xff, 0xff, 0x01, 0x00, 0x00, 0x00,
  0x19, 0x00, 0x00, 0x00, 0x02, 0x00, 0x00, 0x00, 0x12, 0x00, 0x00, 0x00,
  0x01, 0x00, 0x00, 0x00, 0x32, 0xd8, 0xff, 0xff, 0x14, 0x00, 0x00, 0x00,
  0x00, 0x00, 0x00, 0x0b, 0x10, 0x00, 0x00, 0x00, 0x14, 0x00, 0x00, 0x00,
  0x11, 0x00, 0x00, 0x00, 0x08, 0xc4, 0xff, 0xff, 0x01, 0x00, 0x00, 0x00,
  0x18, 0x00, 0x00, 0x00, 0x02, 0x00, 0x00, 0x00, 0x00, 0x00, 0x00, 0x00,
  0x05, 0x00, 0x00, 0x00, 0x62, 0xd8, 0xff, 0xff, 0x14, 0x00, 0x00, 0x00,
  0x00, 0x00, 0x00, 0x20, 0x18, 0x00, 0x00, 0x00, 0x1c, 0x00, 0x00, 0x00,
  0x06, 0x00, 0x00, 0x00, 0x24, 0xdb, 0xff, 0xff, 0x03, 0x00, 0x00, 0x00,
  0x01, 0x00, 0x00, 0x00, 0x01, 0x00, 0x00, 0x00, 0x17, 0x00, 0x00, 0x00,
  0x04, 0x00, 0x00, 0x00, 0x14, 0x00, 0x00, 0x00, 0x09, 0x00, 0x00, 0x00,
  0x06, 0x00, 0x00, 0x00, 0x08, 0x00, 0x00, 0x00, 0xa2, 0xd8, 0xff, 0xff,
  0x14, 0x00, 0x00, 0x00, 0x00, 0x00, 0x00, 0x20, 0x18, 0x00, 0x00, 0x00,
  0x1c, 0x00, 0x00, 0x00, 0x06, 0x00, 0x00, 0x00, 0x64, 0xdb, 0xff, 0xff,
  0x01, 0x00, 0x00, 0x00, 0x01, 0x00, 0x00, 0x00, 0x01, 0x00, 0x00, 0x00,
  0x16, 0x00, 0x00, 0x00, 0x04, 0x00, 0x00, 0x00, 0x14, 0x00, 0x00, 0x00,
  0x07, 0x00, 0x00, 0x00, 0x09, 0x00, 0x00, 0x00, 0x08, 0x00, 0x00, 0x00,
  0xe2, 0xd8, 0xff, 0xff, 0x14, 0x00, 0x00, 0x00, 0x00, 0x00, 0x00, 0x20,
  0x18, 0x00, 0x00, 0x00, 0x1c, 0x00, 0x00, 0x00, 0x06, 0x00, 0x00, 0x00,
  0xa4, 0xdb, 0xff, 0xff, 0x01, 0x00, 0x00, 0x00, 0x03, 0x00, 0x00, 0x00,
  0x01, 0x00, 0x00, 0x00, 0x15, 0x00, 0x00, 0x00, 0x04, 0x00, 0x00, 0x00,
  0x14, 0x00, 0x00, 0x00, 0x06, 0x00, 0x00, 0x00, 0x07, 0x00, 0x00, 0x00,
  0x08, 0x00, 0x00, 0x00, 0x22, 0xd9, 0xff, 0xff, 0x14, 0x00, 0x00, 0x00,
  0x00, 0x00, 0x00, 0x08, 0x10, 0x00, 0x00, 0x00, 0x14, 0x00, 0x00, 0x00,
  0x0d, 0x00, 0x00, 0x00, 0xf8, 0xc4, 0xff, 0xff, 0x01, 0x00, 0x00, 0x00,
  0x14, 0x00, 0x00, 0x00, 0x03, 0x00, 0x00, 0x00, 0x11, 0x00, 0x00, 0x00,
  0x10, 0x00, 0x00, 0x00, 0x0f, 0x00, 0x00, 0x00, 0x56, 0xd9, 0xff, 0xff,
  0x14, 0x00, 0x00, 0x00, 0x00, 0x00, 0x00, 0x0b, 0x10, 0x00, 0x00, 0x00,
  0x14, 0x00, 0x00, 0x00, 0x11, 0x00, 0x00, 0x00, 0x2c, 0xc5, 0xff, 0xff,
  0x01, 0x00, 0x00, 0x00, 0x13, 0x00, 0x00, 0x00, 0x02, 0x00, 0x00, 0x00,
  0x01, 0x00, 0x00, 0x00, 0x05, 0x00, 0x00, 0x00, 0x46, 0xd9, 0xff, 0xff,
  0x08, 0x00, 0x00, 0x00, 0x0c, 0x00, 0x00, 0x00, 0x01, 0x00, 0x00, 0x00,
  0x12, 0x00, 0x00, 0x00, 0x01, 0x00, 0x00, 0x00, 0x04, 0x00, 0x00, 0x00,
  0x62, 0xd9, 0xff, 0xff, 0x08, 0x00, 0x00, 0x00, 0x0c, 0x00, 0x00, 0x00,
  0x01, 0x00, 0x00, 0x00, 0x11, 0x00, 0x00, 0x00, 0x01, 0x00, 0x00, 0x00,
  0x03, 0x00, 0x00, 0x00, 0x05, 0x00, 0x00, 0x00, 0x18, 0x00, 0x00, 0x00,
  0x13, 0x00, 0x00, 0x00, 0x2a, 0x00, 0x00, 0x00, 0x29, 0x00, 0x00, 0x00,
  0x04, 0x00, 0x00, 0x00, 0x05, 0x00, 0x00, 0x00, 0x00, 0x00, 0x00, 0x00,
  0x01, 0x00, 0x00, 0x00, 0x02, 0x00, 0x00, 0x00, 0x03, 0x00, 0x00, 0x00,
  0x04, 0x00, 0x00, 0x00, 0x2b, 0x00, 0x00, 0x00, 0x28, 0x1d, 0x00, 0x00,
  0xd8, 0x1c, 0x00, 0x00, 0x64, 0x1c, 0x00, 0x00, 0x00, 0x1c, 0x00, 0x00,
  0x94, 0x1b, 0x00, 0x00, 0x54, 0x1b, 0x00, 0x00, 0x10, 0x1b, 0x00, 0x00,
  0xcc, 0x1a, 0x00, 0x00, 0x88, 0x1a, 0x00, 0x00, 0x44, 0x1a, 0x00, 0x00,
  0x04, 0x1a, 0x00, 0x00, 0xc4, 0x19, 0x00, 0x00, 0x64, 0x19, 0x00, 0x00,
  0xd0, 0x16, 0x00, 0x00, 0x34, 0x14, 0x00, 0x00, 0xa0, 0x11, 0x00, 0x00,
  0x04, 0x0f, 0x00, 0x00, 0x90, 0x0e, 0x00, 0x00, 0x18, 0x0e, 0x00, 0x00,
  0xcc, 0x0d, 0x00, 0x00, 0x14, 0x0d, 0x00, 0x00, 0x80, 0x0c, 0x00, 0x00,
  0xec, 0x0b, 0x00, 0x00, 0x58, 0x0b, 0x00, 0x00, 0x0c, 0x0b, 0x00, 0x00,
  0x68, 0x0a, 0x00, 0x00, 0xb4, 0x09, 0x00, 0x00, 0xc8, 0x08, 0x00, 0x00,
  0xdc, 0x07, 0x00, 0x00, 0xf0, 0x06, 0x00, 0x00, 0x64, 0x06, 0x00, 0x00,
  0xd8, 0x05, 0x00, 0x00, 0x4c, 0x05, 0x00, 0x00, 0xc0, 0x04, 0x00, 0x00,
  0x34, 0x04, 0x00, 0x00, 0xa0, 0x03, 0x00, 0x00, 0x14, 0x03, 0x00, 0x00,
  0x88, 0x02, 0x00, 0x00, 0xfc, 0x01, 0x00, 0x00, 0x70, 0x01, 0x00, 0x00,
  0xe4, 0x00, 0x00, 0x00, 0x94, 0x00, 0x00, 0x00, 0x04, 0x00, 0x00, 0x00,
  0x94, 0xce, 0xff, 0xff, 0x1c, 0x00, 0x00, 0x00, 0x00, 0x00, 0x00, 0x01,
  0x34, 0x00, 0x00, 0x00, 0x34, 0x00, 0x00, 0x00, 0x5d, 0x00, 0x00, 0x00,
  0x00, 0x00, 0x00, 0x0e, 0x6c, 0x00, 0x00, 0x00, 0x01, 0x00, 0x00, 0x00,
  0x04, 0x00, 0x00, 0x00, 0x7a, 0xce, 0xff, 0xff, 0x00, 0x00, 0x00, 0x01,
  0x04, 0x00, 0x00, 0x00, 0x02, 0x00, 0x00, 0x00, 0x00, 0x00, 0x00, 0x00,
  0x10, 0x00, 0x00, 0x00, 0x9c, 0xc6, 0xff, 0xff, 0x3d, 0x00, 0x00, 0x00,
  0x73, 0x65, 0x71, 0x75, 0x65, 0x6e, 0x74, 0x69, 0x61, 0x6c, 0x5f, 0x31,
  0x2f, 0x67, 0x72, 0x75, 0x5f, 0x31, 0x2f, 0x77, 0x68, 0x69, 0x6c, 0x65,
  0x2f, 0x54, 0x65, 0x6e, 0x73, 0x6f, 0x72, 0x41, 0x72, 0x72, 0x61, 0x79,
  0x56, 0x32, 0x57, 0x72, 0x69, 0x74, 0x65, 0x2f, 0x54, 0x65, 0x6e, 0x73,
  0x6f, 0x72, 0x4c, 0x69, 0x73, 0x74, 0x53, 0x65, 0x74, 0x49, 0x74, 0x65,
  0x6d, 0x00, 0x00, 0x00, 0x00, 0x00, 0x00, 0x00, 0x2a, 0xc7, 0xff, 0xff,
  0x00, 0x00, 0x00, 0x01, 0x14, 0x00, 0x00, 0x00, 0x1c, 0x00, 0x00, 0x00,
  0x1c, 0x00, 0x00, 0x00, 0x5c, 0x00, 0x00, 0x00, 0x28, 0x00, 0x00, 0x00,
  0x02, 0x00, 0x00, 0x00, 0xff, 0xff, 0xff, 0xff, 0x10, 0x00, 0x00, 0x00,
  0x10, 0xc7, 0xff, 0xff, 0x0f, 0x00, 0x00, 0x00, 0x74, 0x66, 0x6c, 0x2e,
  0x64, 0x65, 0x71, 0x75, 0x61, 0x6e, 0x74, 0x69, 0x7a, 0x65, 0x31, 0x00,
  0x02, 0x00, 0x00, 0x00, 0x01, 0x00, 0x00, 0x00, 0x10, 0x00, 0x00, 0x00,
  0x3a, 0xce, 0xff, 0xff, 0x00, 0x00, 0x00, 0x01, 0x18, 0x00, 0x00, 0x00,
  0x20, 0x00, 0x00, 0x00, 0x3c, 0x00, 0x00, 0x00, 0x5b, 0x00, 0x00, 0x00,
  0x00, 0x00, 0x00, 0x09, 0x60, 0x00, 0x00, 0x00, 0x02, 0x00, 0x00, 0x00,
  0xff, 0xff, 0xff, 0xff, 0x10, 0x00, 0x00, 0x00, 0xd4, 0xca, 0xff, 0xff,
  0x08, 0x00, 0x00, 0x00, 0x10, 0x00, 0x00, 0x00, 0x01, 0x00, 0x00, 0x00,
  0x00, 0x00, 0x00, 0x00, 0x00, 0x00, 0x00, 0x00, 0x01, 0x00, 0x00, 0x00,
  0x32, 0x80, 0x00, 0x3c, 0x29, 0x00, 0x00, 0x00, 0x73, 0x65, 0x71, 0x75,
  0x65, 0x6e, 0x74, 0x69, 0x61, 0x6c, 0x5f, 0x31, 0x2f, 0x67, 0x72, 0x75,
  0x5f, 0x31, 0x2f, 0x77, 0x68, 0x69, 0x6c, 0x65, 0x2f, 0x67, 0x72, 0x75,
  0x5f, 0x63, 0x65, 0x6c, 0x6c, 0x5f, 0x31, 0x2f, 0x61, 0x64, 0x64, 0x5f,
  0x35, 0x00, 0x00, 0x00, 0x02, 0x00, 0x00, 0x00, 0x01, 0x00, 0x00, 0x00,
  0x10, 0x00, 0x00, 0x00, 0xc2, 0xce, 0xff, 0xff, 0x00, 0x00, 0x00, 0x01,
  0x18, 0x00, 0x00, 0x00, 0x20, 0x00, 0x00, 0x00, 0x3c, 0x00, 0x00, 0x00,
  0x5a, 0x00, 0x00, 0x00, 0x00, 0x00, 0x00, 0x09, 0x60, 0x00, 0x00, 0x00,
  0x02, 0x00, 0x00, 0x00, 0xff, 0xff, 0xff, 0xff, 0x10, 0x00, 0x00, 0x00,
  0x5c, 0xcb, 0xff, 0xff, 0x08, 0x00, 0x00, 0x00, 0x10, 0x00, 0x00, 0x00,
  0x01, 0x00, 0x00, 0x00, 0x00, 0x00, 0x00, 0x00, 0x00, 0x00, 0x00, 0x00,
  0x01, 0x00, 0x00, 0x00, 0x32, 0x80, 0x00, 0x3c, 0x29, 0x00, 0x00, 0x00,
  0x73, 0x65, 0x71, 0x75, 0x65, 0x6e, 0x74, 0x69, 0x61, 0x6c, 0x5f, 0x31,
  0x2f, 0x67, 0x72, 0x75, 0x5f, 0x31, 0x2f, 0x77, 0x68, 0x69, 0x6c, 0x65,
  0x2f, 0x67, 0x72, 0x75, 0x5f, 0x63, 0x65, 0x6c, 0x6c, 0x5f, 0x31, 0x2f,
  0x6d, 0x75, 0x6c, 0x5f, 0x32, 0x00, 0x00, 0x00, 0x02, 0x00, 0x00, 0x00,
  0x01, 0x00, 0x00, 0x00, 0x10, 0x00, 0x00, 0x00, 0x4a, 0xcf, 0xff, 0xff,
  0x00, 0x00, 0x00, 0x01, 0x18, 0x00, 0x00, 0x00, 0x20, 0x00, 0x00, 0x00,
  0x3c, 0x00, 0x00, 0x00, 0x59, 0x00, 0x00, 0x00, 0x00, 0x00, 0x00, 0x09,
  0x60, 0x00, 0x00, 0x00, 0x02, 0x00, 0x00, 0x00, 0xff, 0xff, 0xff, 0xff,
  0x10, 0x00, 0x00, 0x00, 0xe4, 0xcb, 0xff, 0xff, 0x08, 0x00, 0x00, 0x00,
  0x10, 0x00, 0x00, 0x00, 0x01, 0x00, 0x00, 0x00, 0x00, 0x00, 0x00, 0x00,
  0x00, 0x00, 0x00, 0x00, 0x01, 0x00, 0x00, 0x00, 0x00, 0x00, 0x00, 0x3c,
  0x28, 0x00, 0x00, 0x00, 0x73, 0x65, 0x71, 0x75, 0x65, 0x6e, 0x74, 0x69,
  0x61, 0x6c, 0x5f, 0x31, 0x2f, 0x67, 0x72, 0x75, 0x5f, 0x31, 0x2f, 0x77,
  0x68, 0x69, 0x6c, 0x65, 0x2f, 0x67, 0x72, 0x75, 0x5f, 0x63, 0x65, 0x6c,
  0x6c, 0x5f, 0x31, 0x2f, 0x54, 0x61, 0x6e, 0x68, 0x00, 0x00, 0x00, 0x00,
  0x02, 0x00, 0x00, 0x00, 0x01, 0x00, 0x00, 0x00, 0x10, 0x00, 0x00, 0x00,
  0xd2, 0xcf, 0xff, 0xff, 0x00, 0x00, 0x00, 0x01, 0x18, 0x00, 0x00, 0x00,
  0x20, 0x00, 0x00, 0x00, 0x3c, 0x00, 0x00, 0x00, 0x58, 0x00, 0x00, 0x00,
  0x00, 0x00, 0x00, 0x09, 0x60, 0x00, 0x00, 0x00, 0x02, 0x00, 0x00, 0x00,
  0xff, 0xff, 0xff, 0xff, 0x10, 0x00, 0x00, 0x00, 0x6c, 0xcc, 0xff, 0xff,
  0x08, 0x00, 0x00, 0x00, 0x10, 0x00, 0x00, 0x00, 0x01, 0x00, 0x00, 0x00,
  0x0a, 0x00, 0x00, 0x00, 0x00, 0x00, 0x00, 0x00, 0x01, 0x00, 0x00, 0x00,
  0xe3, 0x90, 0xd3, 0x3e, 0x29, 0x00, 0x00, 0x00, 0x73, 0x65, 0x71, 0x75,
  0x65, 0x6e, 0x74, 0x69, 0x61, 0x6c, 0x5f, 0x31, 0x2f, 0x67, 0x72, 0x75,
  0x5f, 0x31, 0x2f, 0x77, 0x68, 0x69, 0x6c, 0x65, 0x2f, 0x67, 0x72, 0x75,
  0x5f, 0x63, 0x65, 0x6c, 0x6c, 0x5f, 0x31, 0x2f, 0x61, 0x64, 0x64, 0x5f,
  0x34, 0x00, 0x00, 0x00, 0x02, 0x00, 0x00, 0x00, 0x01, 0x00, 0x00, 0x00,
  0x10, 0x00, 0x00, 0x00, 0x5a, 0xd0, 0xff, 0xff, 0x00, 0x00, 0x00, 0x01,
  0x18, 0x00, 0x00, 0x00, 0x20, 0x00, 0x00, 0x00, 0x40, 0x00, 0x00, 0x00,
  0x57, 0x00, 0x00, 0x00, 0x00, 0x00, 0x00, 0x09, 0x60, 0x00, 0x00, 0x00,
  0x02, 0x00, 0x00, 0x00, 0xff, 0xff, 0xff, 0xff, 0x10, 0x00, 0x00, 0x00,
  0xf4, 0xcc, 0xff, 0xff, 0x08, 0x00, 0x00, 0x00, 0x14, 0x00, 0x00, 0x00,
  0x01, 0x00, 0x00, 0x00, 0xf6, 0xff, 0xff, 0xff, 0xff, 0xff, 0xff, 0xff,
  0x00, 0x00, 0x00, 0x00, 0x01, 0x00, 0x00, 0x00, 0x46, 0x6b, 0x99, 0x3b,
  0x27, 0x00, 0x00, 0x00, 0x73, 0x65, 0x71, 0x75, 0x65, 0x6e, 0x74, 0x69,
  0x61, 0x6c, 0x5f, 0x31, 0x2f, 0x67, 0x72, 0x75, 0x5f, 0x31, 0x2f, 0x77,
  0x68, 0x69, 0x6c, 0x65, 0x2f, 0x67, 0x72, 0x75, 0x5f, 0x63, 0x65, 0x6c,
  0x6c, 0x5f, 0x31, 0x2f, 0x6d, 0x75, 0x6c, 0x00, 0x02, 0x00, 0x00, 0x00,
  0x01, 0x00, 0x00, 0x00, 0x10, 0x00, 0x00, 0x00, 0xe2, 0xd0, 0xff, 0xff,
  0x00, 0x00, 0x00, 0x01, 0x18, 0x00, 0x00, 0x00, 0x20, 0x00, 0x00, 0x00,
  0x40, 0x00, 0x00, 0x00, 0x56, 0x00, 0x00, 0x00, 0x00, 0x00, 0x00, 0x09,
  0x68, 0x00, 0x00, 0x00, 0x02, 0x00, 0x00, 0x00, 0xff, 0xff, 0xff, 0xff,
  0x10, 0x00, 0x00, 0x00, 0x7c, 0xcd, 0xff, 0xff, 0x08, 0x00, 0x00, 0x00,
  0x14, 0x00, 0x00, 0x00, 0x01, 0x00, 0x00, 0x00, 0x80, 0xff, 0xff, 0xff,
  0xff, 0xff, 0xff, 0xff, 0x00, 0x00, 0x00, 0x00, 0x01, 0x00, 0x00, 0x00,
  0x00, 0x00, 0x80, 0x3b, 0x2d, 0x00, 0x00, 0x00, 0x73, 0x65, 0x71, 0x75,
  0x65, 0x6e, 0x74, 0x69, 0x61, 0x6c, 0x5f, 0x31, 0x2f, 0x67, 0x72, 0x75,
  0x5f, 0x31, 0x2f, 0x77, 0x68, 0x69, 0x6c, 0x65, 0x2f, 0x67, 0x72, 0x75,
  0x5f, 0x63, 0x65, 0x6c, 0x6c, 0x5f, 0x31, 0x2f, 0x53, 0x69, 0x67, 0x6d,
  0x6f, 0x69, 0x64, 0x5f, 0x31, 0x00, 0x00, 0x00, 0x02, 0x00, 0x00, 0x00,
  0x01, 0x00, 0x00, 0x00, 0x10, 0x00, 0x00, 0x00, 0x72, 0xd1, 0xff, 0xff,
  0x00, 0x00, 0x00, 0x01, 0x18, 0x00, 0x00, 0x00, 0x20, 0x00, 0x00, 0x00,
  0x3c, 0x00, 0x00, 0x00, 0x55, 0x00, 0x00, 0x00, 0x00, 0x00, 0x00, 0x09,
  0x60, 0x00, 0x00, 0x00, 0x02, 0x00, 0x00, 0x00, 0xff, 0xff, 0xff, 0xff,
  0x10, 0x00, 0x00, 0x00, 0x0c, 0xce, 0xff, 0xff, 0x08, 0x00, 0x00, 0x00,
  0x10, 0x00, 0x00, 0x00, 0x01, 0x00, 0x00, 0x00, 0xdf, 0xff, 0xff, 0xff,
  0xff, 0xff, 0xff, 0xff, 0x01, 0x00, 0x00, 0x00, 0x81, 0xc8, 0xe0, 0x3e,
  0x29, 0x00, 0x00, 0x00, 0x73, 0x65, 0x71, 0x75, 0x65, 0x6e, 0x74, 0x69,
  0x61, 0x6c, 0x5f, 0x31, 0x2f, 0x67, 0x72, 0x75, 0x5f, 0x31, 0x2f, 0x77,
  0x68, 0x69, 0x6c, 0x65, 0x2f, 0x67, 0x72, 0x75, 0x5f, 0x63, 0x65, 0x6c,
  0x6c, 0x5f, 0x31, 0x2f, 0x61, 0x64, 0x64, 0x5f, 0x33, 0x00, 0x00, 0x00,
  0x02, 0x00, 0x00, 0x00, 0x01, 0x00, 0x00, 0x00, 0x10, 0x00, 0x00, 0x00,
  0xfa, 0xd1, 0xff, 0xff, 0x00, 0x00, 0x00, 0x01, 0x18, 0x00, 0x00, 0x00,
  0x20, 0x00, 0x00, 0x00, 0x40, 0x00, 0x00, 0x00, 0x54, 0x00, 0x00, 0x00,
  0x00, 0x00, 0x00, 0x09, 0x60, 0x00, 0x00, 0x00, 0x02, 0x00, 0x00, 0x00,
  0xff, 0xff, 0xff, 0xff, 0x10, 0x00, 0x00, 0x00, 0x94, 0xce, 0xff, 0xff,
  0x08, 0x00, 0x00, 0x00, 0x14, 0x00, 0x00, 0x00, 0x01, 0x00, 0x00, 0x00,
  0xff, 0xff, 0xff, 0xff, 0xff, 0xff, 0xff, 0xff, 0x00, 0x00, 0x00, 0x00,
  0x01, 0x00, 0x00, 0x00, 0x81, 0x80, 0x00, 0x3c, 0x27, 0x00, 0x00, 0x00,
  0x73, 0x65, 0x71, 0x75, 0x65, 0x6e, 0x74, 0x69, 0x61, 0x6c, 0x5f, 0x31,
  0x2f, 0x67, 0x72, 0x75, 0x5f, 0x31, 0x2f, 0x77, 0x68, 0x69, 0x6c, 0x65,
  0x2f, 0x67, 0x72, 0x75, 0x5f, 0x63, 0x65, 0x6c, 0x6c, 0x5f, 0x31, 0x2f,
  0x73, 0x75, 0x62, 0x00, 0x02, 0x00, 0x00, 0x00, 0x01, 0x00, 0x00, 0x00,
  0x10, 0x00, 0x00, 0x00, 0x82, 0xd2, 0xff, 0xff, 0x00, 0x00, 0x00, 0x01,
  0x18, 0x00, 0x00, 0x00, 0x20, 0x00, 0x00, 0x00, 0x3c, 0x00, 0x00, 0x00,
  0x53, 0x00, 0x00, 0x00, 0x00, 0x00, 0x00, 0x09, 0x60, 0x00, 0x00, 0x00,
  0x02, 0x00, 0x00, 0x00, 0xff, 0xff, 0xff, 0xff, 0x10, 0x00, 0x00, 0x00,
  0x1c, 0xcf, 0xff, 0xff, 0x08, 0x00, 0x00, 0x00, 0x10, 0x00, 0x00, 0x00,
  0x01, 0x00, 0x00, 0x00, 0x00, 0x00, 0x00, 0x00, 0x00, 0x00, 0x00, 0x00,
  0x01, 0x00, 0x00, 0x00, 0x7b, 0xbe, 0x06, 0x32, 0x29, 0x00, 0x00, 0x00,
  0x73, 0x65, 0x71, 0x75, 0x65, 0x6e, 0x74, 0x69, 0x61, 0x6c, 0x5f, 0x31,
  0x2f, 0x67, 0x72, 0x75, 0x5f, 0x31, 0x2f, 0x77, 0x68, 0x69, 0x6c, 0x65,
  0x2f, 0x67, 0x72, 0x75, 0x5f, 0x63, 0x65, 0x6c, 0x6c, 0x5f, 0x31, 0x2f,
  0x6d, 0x75, 0x6c, 0x5f, 0x31, 0x00, 0x00, 0x00, 0x02, 0x00, 0x00, 0x00,
  0x01, 0x00, 0x00, 0x00, 0x10, 0x00, 0x00, 0x00, 0x0a, 0xd3, 0xff, 0xff,
  0x00, 0x00, 0x00, 0x01, 0x18, 0x00, 0x00, 0x00, 0x20, 0x00, 0x00, 0x00,
  0x3c, 0x00, 0x00, 0x00, 0x52, 0x00, 0x00, 0x00, 0x00, 0x00, 0x00, 0x09,
  0x60, 0x00, 0x00, 0x00, 0x02, 0x00, 0x00, 0x00, 0xff, 0xff, 0xff, 0xff,
  0x10, 0x00, 0x00, 0x00, 0xa4, 0xcf, 0xff, 0xff, 0x08, 0x00, 0x00, 0x00,
  0x10, 0x00, 0x00, 0x00, 0x01, 0x00, 0x00, 0x00, 0x80, 0xff, 0xff, 0xff,
  0xff, 0xff, 0xff, 0xff, 0x01, 0x00, 0x00, 0x00, 0x00, 0x00, 0x80, 0x3b,
  0x2b, 0x00, 0x00, 0x00, 0x73, 0x65, 0x71, 0x75, 0x65, 0x6e, 0x74, 0x69,
  0x61, 0x6c, 0x5f, 0x31, 0x2f, 0x67, 0x72, 0x75, 0x5f, 0x31, 0x2f, 0x77,
  0x68, 0x69, 0x6c, 0x65, 0x2f, 0x67, 0x72, 0x75, 0x5f, 0x63, 0x65, 0x6c,
  0x6c, 0x5f, 0x31, 0x2f, 0x53, 0x69, 0x67, 0x6d, 0x6f, 0x69, 0x64, 0x00,
  0x02, 0x00, 0x00, 0x00, 0x01, 0x00, 0x00, 0x00, 0x10, 0x00, 0x00, 0x00,
  0x92, 0xd3, 0xff, 0xff, 0x00, 0x00, 0x00, 0x01, 0x18, 0x00, 0x00, 0x00,
  0x20, 0x00, 0x00, 0x00, 0x3c, 0x00, 0x00, 0x00, 0x51, 0x00, 0x00, 0x00,
  0x00, 0x00, 0x00, 0x09, 0x60, 0x00, 0x00, 0x00, 0x02, 0x00, 0x00, 0x00,
  0xff, 0xff, 0xff, 0xff, 0x10, 0x00, 0x00, 0x00, 0x2c, 0xd0, 0xff, 0xff,
  0x08, 0x00, 0x00, 0x00, 0x10, 0x00, 0x00, 0x00, 0x01, 0x00, 0x00, 0x00,
  0xbc, 0xff, 0xff, 0xff, 0xff, 0xff, 0xff, 0xff, 0x01, 0x00, 0x00, 0x00,
  0x84, 0x76, 0xfe, 0x3e, 0x29, 0x00, 0x00, 0x00, 0x73, 0x65, 0x71, 0x75,
  0x65, 0x6e, 0x74, 0x69, 0x61, 0x6c, 0x5f, 0x31, 0x2f, 0x67, 0x72, 0x75,
  0x5f, 0x31, 0x2f, 0x77, 0x68, 0x69, 0x6c, 0x65, 0x2f, 0x67, 0x72, 0x75,
  0x5f, 0x63, 0x65, 0x6c, 0x6c, 0x5f, 0x31, 0x2f, 0x61, 0x64, 0x64, 0x5f,
  0x32, 0x00, 0x00, 0x00, 0x02, 0x00, 0x00, 0x00, 0x01, 0x00, 0x00, 0x00,
  0x10, 0x00, 0x00, 0x00, 0x1a, 0xd4, 0xff, 0xff, 0x00, 0x00, 0x00, 0x01,
  0x18, 0x00, 0x00, 0x00, 0x20, 0x00, 0x00, 0x00, 0x40, 0x00, 0x00, 0x00,
  0x50, 0x00, 0x00, 0x00, 0x00, 0x00, 0x00, 0x09, 0xc0, 0x00, 0x00, 0x00,
  0x02, 0x00, 0x00, 0x00, 0xff, 0xff, 0xff, 0xff, 0x10, 0x00, 0x00, 0x00,
  0xb4, 0xd0, 0xff, 0xff, 0x08, 0x00, 0x00, 0x00, 0x14, 0x00, 0x00, 0x00,
  0x01, 0x00, 0x00, 0x00, 0xdd, 0xff, 0xff, 0xff, 0xff, 0xff, 0xff, 0xff,
  0x00, 0x00, 0x00, 0x00, 0x01, 0x00, 0x00, 0x00, 0xf7, 0xa7, 0x1a, 0x3f,
  0x86, 0x00, 0x00, 0x00, 0x73, 0x65, 0x71, 0x75, 0x65, 0x6e, 0x74, 0x69,
  0x61, 0x6c, 0x5f, 0x31, 0x2f, 0x67, 0x72, 0x75, 0x5f, 0x31, 0x2f, 0x77,
  0x68, 0x69, 0x6c, 0x65, 0x2f, 0x67, 0x72, 0x75, 0x5f, 0x63, 0x65, 0x6c,
  0x6c, 0x5f, 0x31, 0x2f, 0x73, 0x70, 0x6c, 0x69, 0x74, 0x5f, 0x31, 0x3b,
  0x73, 0x65, 0x71, 0x75, 0x65, 0x6e, 0x74, 0x69, 0x61, 0x6c, 0x5f, 0x31,
  0x2f, 0x67, 0x72, 0x75, 0x5f, 0x31, 0x2f, 0x77, 0x68, 0x69, 0x6c, 0x65,
  0x2f, 0x67, 0x72, 0x75, 0x5f, 0x63, 0x65, 0x6c, 0x6c, 0x5f, 0x31, 0x2f,
  0x73, 0x70, 0x6c, 0x69, 0x74, 0x5f, 0x31, 0x31, 0x3b, 0x73, 0x65, 0x71,
  0x75, 0x65, 0x6e, 0x74, 0x69, 0x61, 0x6c, 0x5f, 0x31, 0x2f, 0x67, 0x72,
  0x75, 0x5f, 0x31, 0x2f, 0x77, 0x68, 0x69, 0x6c, 0x65, 0x2f, 0x67, 0x72,
  0x75, 0x5f, 0x63, 0x65, 0x6c, 0x6c, 0x5f, 0x31, 0x2f, 0x73, 0x70, 0x6c,
  0x69, 0x74, 0x5f, 0x31, 0x32, 0x32, 0x00, 0x00, 0x02, 0x00, 0x00, 0x00,
  0x01, 0x00, 0x00, 0x00, 0x10, 0x00, 0x00, 0x00, 0x02, 0xd5, 0xff, 0xff,
  0x00, 0x00, 0x00, 0x01, 0x18, 0x00, 0x00, 0x00, 0x20, 0x00, 0x00, 0x00,
  0x40, 0x00, 0x00, 0x00, 0x4f, 0x00, 0x00, 0x00, 0x00, 0x00, 0x00, 0x09,
  0xc0, 0x00, 0x00, 0x00, 0x02, 0x00, 0x00, 0x00, 0xff, 0xff, 0xff, 0xff,
  0x10, 0x00, 0x00, 0x00, 0x9c, 0xd1, 0xff, 0xff, 0x08, 0x00, 0x00, 0x00,
  0x14, 0x00, 0x00, 0x00, 0x01, 0x00, 0x00, 0x00, 0xdd, 0xff, 0xff, 0xff,
  0xff, 0xff, 0xff, 0xff, 0x00, 0x00, 0x00, 0x00, 0x01, 0x00, 0x00, 0x00,
  0xf7, 0xa7, 0x1a, 0x3f, 0x86, 0x00, 0x00, 0x00, 0x73, 0x65, 0x71, 0x75,
  0x65, 0x6e, 0x74, 0x69, 0x61, 0x6c, 0x5f, 0x31, 0x2f, 0x67, 0x72, 0x75,
  0x5f, 0x31, 0x2f, 0x77, 0x68, 0x69, 0x6c, 0x65, 0x2f, 0x67, 0x72, 0x75,
  0x5f, 0x63, 0x65, 0x6c, 0x6c, 0x5f, 0x31, 0x2f, 0x73, 0x70, 0x6c, 0x69,
  0x74, 0x5f, 0x31, 0x3b, 0x73, 0x65, 0x71, 0x75, 0x65, 0x6e, 0x74, 0x69,
  0x61, 0x6c, 0x5f, 0x31, 0x2f, 0x67, 0x72, 0x75, 0x5f, 0x31, 0x2f, 0x77,
  0x68, 0x69, 0x6c, 0x65, 0x2f, 0x67, 0x72, 0x75, 0x5f, 0x63, 0x65, 0x6c,
  0x6c, 0x5f, 0x31, 0x2f, 0x73, 0x70, 0x6c, 0x69, 0x74, 0x5f, 0x31, 0x31,
  0x3b, 0x73, 0x65, 0x71, 0x75, 0x65, 0x6e, 0x74, 0x69, 0x61, 0x6c, 0x5f,
  0x31, 0x2f, 0x67, 0x72, 0x75, 0x5f, 0x31, 0x2f, 0x77, 0x68, 0x69, 0x6c,
  0x65, 0x2f, 0x67, 0x72, 0x75, 0x5f, 0x63, 0x65, 0x6c, 0x6c, 0x5f, 0x31,
  0x2f, 0x73, 0x70, 0x6c, 0x69, 0x74, 0x5f, 0x31, 0x32, 0x31, 0x00, 0x00,
  0x02, 0x00, 0x00, 0x00, 0x01, 0x00, 0x00, 0x00, 0x10, 0x00, 0x00, 0x00,
  0xea, 0xd5, 0xff, 0xff, 0x00, 0x00, 0x00, 0x01, 0x18, 0x00, 0x00, 0x00,
  0x20, 0x00, 0x00, 0x00, 0x40, 0x00, 0x00, 0x00, 0x4e, 0x00, 0x00, 0x00,
  0x00, 0x00, 0x00, 0x09, 0xc0, 0x00, 0x00, 0x00, 0x02, 0x00, 0x00, 0x00,
  0xff, 0xff, 0xff, 0xff, 0x10, 0x00, 0x00, 0x00, 0x84, 0xd2, 0xff, 0xff,
  0x08, 0x00, 0x00, 0x00, 0x14, 0x00, 0x00, 0x00, 0x01, 0x00, 0x00, 0x00,
  0xdd, 0xff, 0xff, 0xff, 0xff, 0xff, 0xff, 0xff, 0x00, 0x00, 0x00, 0x00,
  0x01, 0x00, 0x00, 0x00, 0xf7, 0xa7, 0x1a, 0x3f, 0x85, 0x00, 0x00, 0x00,
  0x73, 0x65, 0x71, 0x75, 0x65, 0x6e, 0x74, 0x69, 0x61, 0x6c, 0x5f, 0x31,
  0x2f, 0x67, 0x72, 0x75, 0x5f, 0x31, 0x2f, 0x77, 0x68, 0x69, 0x6c, 0x65,
  0x2f, 0x67, 0x72, 0x75, 0x5f, 0x63, 0x65, 0x6c, 0x6c, 0x5f, 0x31, 0x2f,
  0x73, 0x70, 0x6c, 0x69, 0x74, 0x5f, 0x31, 0x3b, 0x73, 0x65, 0x71, 0x75,
  0x65, 0x6e, 0x74, 0x69, 0x61, 0x6c, 0x5f, 0x31, 0x2f, 0x67, 0x72, 0x75,
  0x5f, 0x31, 0x2f, 0x77, 0x68, 0x69, 0x6c, 0x65, 0x2f, 0x67, 0x72, 0x75,
  0x5f, 0x63, 0x65, 0x6c, 0x6c, 0x5f, 0x31, 0x2f, 0x73, 0x70, 0x6c, 0x69,
  0x74, 0x5f, 0x31, 0x31, 0x3b, 0x73, 0x65, 0x71, 0x75, 0x65, 0x6e, 0x74,
  0x69, 0x61, 0x6c, 0x5f, 0x31, 0x2f, 0x67, 0x72, 0x75, 0x5f, 0x31, 0x2f,
  0x77, 0x68, 0x69, 0x6c, 0x65, 0x2f, 0x67, 0x72, 0x75, 0x5f, 0x63, 0x65,
  0x6c, 0x6c, 0x5f, 0x31, 0x2f, 0x73, 0x70, 0x6c, 0x69, 0x74, 0x5f, 0x31,
  0x32, 0x00, 0x00, 0x00, 0x02, 0x00, 0x00, 0x00, 0x01, 0x00, 0x00, 0x00,
  0x10, 0x00, 0x00, 0x00, 0xd2, 0xd6, 0xff, 0xff, 0x00, 0x00, 0x00, 0x01,
  0x18, 0x00, 0x00, 0x00, 0x20, 0x00, 0x00, 0x00, 0x3c, 0x00, 0x00, 0x00,
  0x4d, 0x00, 0x00, 0x00, 0x00, 0x00, 0x00, 0x09, 0x88, 0x00, 0x00, 0x00,
  0x02, 0x00, 0x00, 0x00, 0xff, 0xff, 0xff, 0xff, 0x30, 0x00, 0x00, 0x00,
  0x6c, 0xd3, 0xff, 0xff, 0x08, 0x00, 0x00, 0x00, 0x10, 0x00, 0x00, 0x00,
  0x01, 0x00, 0x00, 0x00, 0xdd, 0xff, 0xff, 0xff, 0xff, 0xff, 0xff, 0xff,
  0x01, 0x00, 0x00, 0x00, 0xf7, 0xa7, 0x1a, 0x3f, 0x52, 0x00, 0x00, 0x00,
  0x73, 0x65, 0x71, 0x75, 0x65, 0x6e, 0x74, 0x69, 0x61, 0x6c, 0x5f, 0x31,
  0x2f, 0x67, 0x72, 0x75, 0x5f, 0x31, 0x2f, 0x77, 0x68, 0x69, 0x6c, 0x65,
  0x2f, 0x67, 0x72, 0x75, 0x5f, 0x63, 0x65, 0x6c, 0x6c, 0x5f, 0x31, 0x2f,
  0x4d, 0x61, 0x74, 0x4d, 0x75, 0x6c, 0x3b, 0x73, 0x65, 0x71, 0x75, 0x65,
  0x6e, 0x74, 0x69, 0x61, 0x6c, 0x5f, 0x31, 0x2f, 0x67, 0x72, 0x75, 0x5f,
  0x31, 0x2f, 0x77, 0x68, 0x69, 0x6c, 0x65, 0x2f, 0x67, 0x72, 0x75, 0x5f,
  0x63, 0x65, 0x6c, 0x6c, 0x5f, 0x31, 0x2f, 0x61, 0x64, 0x64, 0x00, 0x00,
  0x02, 0x00, 0x00, 0x00, 0x01, 0x00, 0x00, 0x00, 0x30, 0x00, 0x00, 0x00,
  0x82, 0xd7, 0xff, 0xff, 0x00, 0x00, 0x00, 0x01, 0x18, 0x00, 0x00, 0x00,
  0x20, 0x00, 0x00, 0x00, 0x40, 0x00, 0x00, 0x00, 0x4c, 0x00, 0x00, 0x00,
  0x00, 0x00, 0x00, 0x09, 0x78, 0x00, 0x00, 0x00, 0x02, 0x00, 0x00, 0x00,
  0xff, 0xff, 0xff, 0xff, 0x10, 0x00, 0x00, 0x00, 0x1c, 0xd4, 0xff, 0xff,
  0x08, 0x00, 0x00, 0x00, 0x14, 0x00, 0x00, 0x00, 0x01, 0x00, 0x00, 0x00,
  0x80, 0xff, 0xff, 0xff, 0xff, 0xff, 0xff, 0xff, 0x00, 0x00, 0x00, 0x00,
  0x01, 0x00, 0x00, 0x00, 0x18, 0xfd, 0xe9, 0x3d, 0x3d, 0x00, 0x00, 0x00,
  0x73, 0x65, 0x71, 0x75, 0x65, 0x6e, 0x74, 0x69, 0x61, 0x6c, 0x5f, 0x31,
  0x2f, 0x67, 0x72, 0x75, 0x5f, 0x31, 0x2f, 0x77, 0x68, 0x69, 0x6c, 0x65,
  0x2f, 0x54, 0x65, 0x6e, 0x73, 0x6f, 0x72, 0x41, 0x72, 0x72, 0x61, 0x79,
  0x56, 0x32, 0x52, 0x65, 0x61, 0x64, 0x2f, 0x54, 0x65, 0x6e, 0x73, 0x6f,
  0x72, 0x4c, 0x69, 0x73, 0x74, 0x47, 0x65, 0x74, 0x49, 0x74, 0x65, 0x6d,
  0x3b, 0x00, 0x00, 0x00, 0x02, 0x00, 0x00, 0x00, 0x01, 0x00, 0x00, 0x00,
  0x10, 0x00, 0x00, 0x00, 0xae, 0xd1, 0xff, 0xff, 0x00, 0x00, 0x00, 0x01,
  0x14, 0x00, 0x00, 0x00, 0x14, 0x00, 0x00, 0x00, 0x4b, 0x00, 0x00, 0x00,
  0x00, 0x00, 0x00, 0x02, 0x2c, 0x00, 0x00, 0x00, 0x38, 0xd1, 0xff, 0xff,
  0x1e, 0x00, 0x00, 0x00, 0x73, 0x65, 0x71, 0x75, 0x65, 0x6e, 0x74, 0x69,
  0x61, 0x6c, 0x5f, 0x31, 0x2f, 0x67, 0x72, 0x75, 0x5f, 0x31, 0x2f, 0x77,
  0x68, 0x69, 0x6c, 0x65, 0x2f, 0x61, 0x64, 0x64, 0x5f, 0x31, 0x00, 0x00,
  0x00, 0x00, 0x00, 0x00, 0x6a, 0xd8, 0xff, 0xff, 0x00, 0x00, 0x00, 0x01,
  0x18, 0x00, 0x00, 0x00, 0x20, 0x00, 0x00, 0x00, 0x3c, 0x00, 0x00, 0x00,
  0x4a, 0x00, 0x00, 0x00, 0x00, 0x00, 0x00, 0x09, 0x68, 0x00, 0x00, 0x00,
  0x02, 0x00, 0x00, 0x00, 0xff, 0xff, 0xff, 0xff, 0x10, 0x00, 0x00, 0x00,
  0x04, 0xd5, 0xff, 0xff, 0x08, 0x00, 0x00, 0x00, 0x10, 0x00, 0x00, 0x00,
  0x01, 0x00, 0x00, 0x00, 0x12, 0x00, 0x00, 0x00, 0x00, 0x00, 0x00, 0x00,
  0x01, 0x00, 0x00, 0x00, 0xde, 0x16, 0xe0, 0x3b, 0x33, 0x00, 0x00, 0x00,
  0x73, 0x65, 0x71, 0x75, 0x65, 0x6e, 0x74, 0x69, 0x61, 0x6c, 0x5f, 0x31,
  0x2f, 0x67, 0x72, 0x75, 0x5f, 0x31, 0x2f, 0x77, 0x68, 0x69, 0x6c, 0x65,
  0x2f, 0x67, 0x72, 0x75, 0x5f, 0x63, 0x65, 0x6c, 0x6c, 0x5f, 0x31, 0x2f,
  0x73, 0x74, 0x72, 0x69, 0x64, 0x65, 0x64, 0x5f, 0x73, 0x6c, 0x69, 0x63,
  0x65, 0x5f, 0x32, 0x00, 0x02, 0x00, 0x00, 0x00, 0x01, 0x00, 0x00, 0x00,
  0x10, 0x00, 0x00, 0x00, 0xfa, 0xd8, 0xff, 0xff, 0x00, 0x00, 0x00, 0x01,
  0x18, 0x00, 0x00, 0x00, 0x20, 0x00, 0x00, 0x00, 0x3c, 0x00, 0x00, 0x00,
  0x49, 0x00, 0x00, 0x00, 0x00, 0x00, 0x00, 0x09, 0x68, 0x00, 0x00, 0x00,
  0x02, 0x00, 0x00, 0x00, 0xff, 0xff, 0xff, 0xff, 0x10, 0x00, 0x00, 0x00,
  0x94, 0xd5, 0xff, 0xff, 0x08, 0x00, 0x00, 0x00, 0x10, 0x00, 0x00, 0x00,
  0x01, 0x00, 0x00, 0x00, 0x12, 0x00, 0x00, 0x00, 0x00, 0x00, 0x00, 0x00,
  0x01, 0x00, 0x00, 0x00, 0xde, 0x16, 0xe0, 0x3b, 0x33, 0x00, 0x00, 0x00,
  0x73, 0x65, 0x71, 0x75, 0x65, 0x6e, 0x74, 0x69, 0x61, 0x6c, 0x5f, 0x31,
  0x2f, 0x67, 0x72, 0x75, 0x5f, 0x31, 0x2f, 0x77, 0x68, 0x69, 0x6c, 0x65,
  0x2f, 0x67, 0x72, 0x75, 0x5f, 0x63, 0x65, 0x6c, 0x6c, 0x5f, 0x31, 0x2f,
  0x73, 0x74, 0x72, 0x69, 0x64, 0x65, 0x64, 0x5f, 0x73, 0x6c, 0x69, 0x63,
  0x65, 0x5f, 0x31, 0x00, 0x02, 0x00, 0x00, 0x00, 0x01, 0x00, 0x00, 0x00,
  0x10, 0x00, 0x00, 0x00, 0x8a, 0xd9, 0xff, 0xff, 0x00, 0x00, 0x00, 0x01,
  0x18, 0x00, 0x00, 0x00, 0x20, 0x00, 0x00, 0x00, 0x3c, 0x00, 0x00, 0x00,
  0x48, 0x00, 0x00, 0x00, 0x00, 0x00, 0x00, 0x09, 0x68, 0x00, 0x00, 0x00,
  0x02, 0x00, 0x00, 0x00, 0xff, 0xff, 0xff, 0xff, 0x10, 0x00, 0x00, 0x00,
  0x24, 0xd6, 0xff, 0xff, 0x08, 0x00, 0x00, 0x00, 0x10, 0x00, 0x00, 0x00,
  0x01, 0x00, 0x00, 0x00, 0x12, 0x00, 0x00, 0x00, 0x00, 0x00, 0x00, 0x00,
  0x01, 0x00, 0x00, 0x00, 0xde, 0x16, 0xe0, 0x3b, 0x31, 0x00, 0x00, 0x00,
  0x73, 0x65, 0x71, 0x75, 0x65, 0x6e, 0x74, 0x69, 0x61, 0x6c, 0x5f, 0x31,
  0x2f, 0x67, 0x72, 0x75, 0x5f, 0x31, 0x2f, 0x77, 0x68, 0x69, 0x6c, 0x65,
  0x2f, 0x67, 0x72, 0x75, 0x5f, 0x63, 0x65, 0x6c, 0x6c, 0x5f, 0x31, 0x2f,
  0x73, 0x74, 0x72, 0x69, 0x64, 0x65, 0x64, 0x5f, 0x73, 0x6c, 0x69, 0x63,
  0x65, 0x00, 0x00, 0x00, 0x02, 0x00, 0x00, 0x00, 0x01, 0x00, 0x00, 0x00,
  0x10, 0x00, 0x00, 0x00, 0x1a, 0xda, 0xff, 0xff, 0x00, 0x00, 0x00, 0x01,
  0x18, 0x00, 0x00, 0x00, 0x20, 0x00, 0x00, 0x00, 0x3c, 0x00, 0x00, 0x00,
  0x47, 0x00, 0x00, 0x00, 0x00, 0x00, 0x00, 0x09, 0x8c, 0x00, 0x00, 0x00,
  0x02, 0x00, 0x00, 0x00, 0xff, 0xff, 0xff, 0xff, 0x30, 0x00, 0x00, 0x00,
  0xb4, 0xd6, 0xff, 0xff, 0x08, 0x00, 0x00, 0x00, 0x10, 0x00, 0x00, 0x00,
  0x01, 0x00, 0x00, 0x00, 0x12, 0x00, 0x00, 0x00, 0x00, 0x00, 0x00, 0x00,
  0x01, 0x00, 0x00, 0x00, 0xde, 0x16, 0xe0, 0x3b, 0x56, 0x00, 0x00, 0x00,
  0x73, 0x65, 0x71, 0x75, 0x65, 0x6e, 0x74, 0x69, 0x61, 0x6c, 0x5f, 0x31,
  0x2f, 0x67, 0x72, 0x75, 0x5f, 0x31, 0x2f, 0x77, 0x68, 0x69, 0x6c, 0x65,
  0x2f, 0x67, 0x72, 0x75, 0x5f, 0x63, 0x65, 0x6c, 0x6c, 0x5f, 0x31, 0x2f,
  0x4d, 0x61, 0x74, 0x4d, 0x75, 0x6c, 0x5f, 0x31, 0x3b, 0x73, 0x65, 0x71,
  0x75, 0x65, 0x6e, 0x74, 0x69, 0x61, 0x6c, 0x5f, 0x31, 0x2f, 0x67, 0x72,
  0x75, 0x5f, 0x31, 0x2f, 0x77, 0x68, 0x69, 0x6c, 0x65, 0x2f, 0x67, 0x72,
  0x75, 0x5f, 0x63, 0x65, 0x6c, 0x6c, 0x5f, 0x31, 0x2f, 0x61, 0x64, 0x64,
  0x5f, 0x31, 0x00, 0x00, 0x02, 0x00, 0x00, 0x00, 0x01, 0x00, 0x00, 0x00,
  0x30, 0x00, 0x00, 0x00, 0x5a, 0xd4, 0xff, 0xff, 0x00, 0x00, 0x00, 0x01,
  0x14, 0x00, 0x00, 0x00, 0x14, 0x00, 0x00, 0x00, 0x46, 0x00, 0x00, 0x00,
  0x00, 0x00, 0x00, 0x02, 0x2c, 0x00, 0x00, 0x00, 0xe4, 0xd3, 0xff, 0xff,
  0x1c, 0x00, 0x00, 0x00, 0x73, 0x65, 0x71, 0x75, 0x65, 0x6e, 0x74, 0x69,
  0x61, 0x6c, 0x5f, 0x31, 0x2f, 0x67, 0x72, 0x75, 0x5f, 0x31, 0x2f, 0x77,
  0x68, 0x69, 0x6c, 0x65, 0x2f, 0x61, 0x64, 0x64, 0x00, 0x00, 0x00, 0x00,
  0x00, 0x00, 0x00, 0x00, 0x16, 0xdb, 0xff, 0xff, 0x00, 0x00, 0x00, 0x01,
  0x18, 0x00, 0x00, 0x00, 0x24, 0x00, 0x00, 0x00, 0x40, 0x00, 0x00, 0x00,
  0x45, 0x00, 0x00, 0x00, 0x00, 0x00, 0x00, 0x09, 0x48, 0x00, 0x00, 0x00,
  0x03, 0x00, 0x00, 0x00, 0x01, 0x00, 0x00, 0x00, 0xff, 0xff, 0xff, 0xff,
  0x10, 0x00, 0x00, 0x00, 0xb4, 0xd7, 0xff, 0xff, 0x08, 0x00, 0x00, 0x00,
  0x10, 0x00, 0x00, 0x00, 0x01, 0x00, 0x00, 0x00, 0x80, 0xff, 0xff, 0xff,
  0xff, 0xff, 0xff, 0xff, 0x01, 0x00, 0x00, 0x00, 0x18, 0xfd, 0xe9, 0x3d,
  0x0d, 0x00, 0x00, 0x00, 0x74, 0x66, 0x6c, 0x2e, 0x71, 0x75, 0x61, 0x6e,
  0x74, 0x69, 0x7a, 0x65, 0x33, 0x00, 0x00, 0x00, 0x03, 0x00, 0x00, 0x00,
  0x01, 0x00, 0x00, 0x00, 0x01, 0x00, 0x00, 0x00, 0x10, 0x00, 0x00, 0x00,
  0x8a, 0xdb, 0xff, 0xff, 0x00, 0x00, 0x00, 0x01, 0x18, 0x00, 0x00, 0x00,
  0x20, 0x00, 0x00, 0x00, 0x40, 0x00, 0x00, 0x00, 0x44, 0x00, 0x00, 0x00,
  0x00, 0x00, 0x00, 0x09, 0x48, 0x00, 0x00, 0x00, 0x02, 0x00, 0x00, 0x00,
  0xff, 0xff, 0xff, 0xff, 0x10, 0x00, 0x00, 0x00, 0x24, 0xd8, 0xff, 0xff,
  0x08, 0x00, 0x00, 0x00, 0x14, 0x00, 0x00, 0x00, 0x01, 0x00, 0x00, 0x00,
  0x00, 0x00, 0x00, 0x00, 0x00, 0x00, 0x00, 0x00, 0x00, 0x00, 0x00, 0x00,
  0x01, 0x00, 0x00, 0x00, 0x7b, 0xbe, 0x06, 0x32, 0x0d, 0x00, 0x00, 0x00,
  0x74, 0x66, 0x6c, 0x2e, 0x71, 0x75, 0x61, 0x6e, 0x74, 0x69, 0x7a, 0x65,
  0x32, 0x00, 0x00, 0x00, 0x02, 0x00, 0x00, 0x00, 0x01, 0x00, 0x00, 0x00,
  0x10, 0x00, 0x00, 0x00, 0x86, 0xd5, 0xff, 0xff, 0x00, 0x00, 0x00, 0x01,
  0x14, 0x00, 0x00, 0x00, 0x68, 0x02, 0x00, 0x00, 0x43, 0x00, 0x00, 0x00,
  0x00, 0x00, 0x00, 0x09, 0x74, 0x02, 0x00, 0x00, 0x84, 0xd8, 0xff, 0xff,
  0x08, 0x00, 0x00, 0x00, 0x8c, 0x01, 0x00, 0x00, 0x30, 0x00, 0x00, 0x00,
  0x00, 0x00, 0x00, 0x00, 0x00, 0x00, 0x00, 0x00, 0x00, 0x00, 0x00, 0x00,
  0x00, 0x00, 0x00, 0x00, 0x00, 0x00, 0x00, 0x00, 0x00, 0x00, 0x00, 0x00,
  0x00, 0x00, 0x00, 0x00, 0x00, 0x00, 0x00, 0x00, 0x00, 0x00, 0x00, 0x00,
  0x00, 0x00, 0x00, 0x00, 0x00, 0x00, 0x00, 0x00, 0x00, 0x00, 0x00, 0x00,
  0x00, 0x00, 0x00, 0x00, 0x00, 0x00, 0x00, 0x00, 0x00, 0x00, 0x00, 0x00,
  0x00, 0x00, 0x00, 0x00, 0x00, 0x00, 0x00, 0x00, 0x00, 0x00, 0x00, 0x00,
  0x00, 0x00, 0x00, 0x00, 0x00, 0x00, 0x00, 0x00, 0x00, 0x00, 0x00, 0x00,
  0x00, 0x00, 0x00, 0x00, 0x00, 0x00, 0x00, 0x00, 0x00, 0x00, 0x00, 0x00,
  0x00, 0x00, 0x00, 0x00, 0x00, 0x00, 0x00, 0x00, 0x00, 0x00, 0x00, 0x00,
  0x00, 0x00, 0x00, 0x00, 0x00, 0x00, 0x00, 0x00, 0x00, 0x00, 0x00, 0x00,
  0x00, 0x00, 0x00, 0x00, 0x00, 0x00, 0x00, 0x00, 0x00, 0x00, 0x00, 0x00,
  0x00, 0x00, 0x00, 0x00, 0x00, 0x00, 0x00, 0x00, 0x00, 0x00, 0x00, 0x00,
  0x00, 0x00, 0x00, 0x00, 0x00, 0x00, 0x00, 0x00, 0x00, 0x00, 0x00, 0x00,
  0x00, 0x00, 0x00, 0x00, 0x00, 0x00, 0x00, 0x00, 0x00, 0x00, 0x00, 0x00,
  0x00, 0x00, 0x00, 0x00, 0x00, 0x00, 0x00, 0x00, 0x00, 0x00, 0x00, 0x00,
  0x00, 0x00, 0x00, 0x00, 0x00, 0x00, 0x00, 0x00, 0x00, 0x00, 0x00, 0x00,
  0x00, 0x00, 0x00, 0x00, 0x00, 0x00, 0x00, 0x00, 0x00, 0x00, 0x00, 0x00,
  0x00, 0x00, 0x00, 0x00, 0x00, 0x00, 0x00, 0x00, 0x00, 0x00, 0x00, 0x00,
  0x00, 0x00, 0x00, 0x00, 0x00, 0x00, 0x00, 0x00, 0x00, 0x00, 0x00, 0x00,
  0x00, 0x00, 0x00, 0x00, 0x00, 0x00, 0x00, 0x00, 0x00, 0x00, 0x00, 0x00,
  0x00, 0x00, 0x00, 0x00, 0x00, 0x00, 0x00, 0x00, 0x00, 0x00, 0x00, 0x00,
  0x00, 0x00, 0x00, 0x00, 0x00, 0x00, 0x00, 0x00, 0x00, 0x00, 0x00, 0x00,
  0x00, 0x00, 0x00, 0x00, 0x00, 0x00, 0x00, 0x00, 0x00, 0x00, 0x00, 0x00,
  0x00, 0x00, 0x00, 0x00, 0x00, 0x00, 0x00, 0x00, 0x00, 0x00, 0x00, 0x00,
  0x00, 0x00, 0x00, 0x00, 0x00, 0x00, 0x00, 0x00, 0x00, 0x00, 0x00, 0x00,
  0x00, 0x00, 0x00, 0x00, 0x00, 0x00, 0x00, 0x00, 0x00, 0x00, 0x00, 0x00,
  0x00, 0x00, 0x00, 0x00, 0x00, 0x00, 0x00, 0x00, 0x00, 0x00, 0x00, 0x00,
  0x00, 0x00, 0x00, 0x00, 0x00, 0x00, 0x00, 0x00, 0x00, 0x00, 0x00, 0x00,
  0x00, 0x00, 0x00, 0x00, 0x00, 0x00, 0x00, 0x00, 0x00, 0x00, 0x00, 0x00,
  0x00, 0x00, 0x00, 0x00, 0x00, 0x00, 0x00, 0x00, 0x00, 0x00, 0x00, 0x00,
  0x00, 0x00, 0x00, 0x00, 0x00, 0x00, 0x00, 0x00, 0x00, 0x00, 0x00, 0x00,
  0x00, 0x00, 0x00, 0x00, 0x00, 0x00, 0x00, 0x00, 0x00, 0x00, 0x00, 0x00,
  0x00, 0x00, 0x00, 0x00, 0x30, 0x00, 0x00, 0x00, 0xb6, 0xcf, 0xda, 0x3b,
  0x40, 0x29, 0x54, 0x3b, 0x09, 0xb6, 0xb5, 0x3d, 0x08, 0x7c, 0xb4, 0x3d,
  0x41, 0x4e, 0x0f, 0x3d, 0xec, 0x0c, 0x84, 0x3c, 0xc6, 0x8d, 0x93, 0x3d,
  0xdd, 0x66, 0x50, 0x3d, 0x8b, 0xbd, 0x78, 0x3d, 0x20, 0x6c, 0xa1, 0x3d,
  0xe1, 0x77, 0x69, 0x3d, 0x1a, 0x10, 0xde, 0x3d, 0x6d, 0x99, 0xf3, 0x3d,
  0x4d, 0xa3, 0xb4, 0x3d, 0x31, 0xdd, 0xd9, 0x3d, 0x7e, 0xb8, 0xa4, 0x3d,
  0x00, 0x3a, 0x89, 0x3b, 0xd0, 0x20, 0xd1, 0x3b, 0x4d, 0x90, 0x4a, 0x3c,
  0x19, 0xd3, 0xf5, 0x3b, 0xed, 0xe9, 0x04, 0x3c, 0x8e, 0x64, 0xcf, 0x3c,
  0x5e, 0x36, 0x90, 0x3c, 0x5e, 0xe0, 0x35, 0x3c, 0xd1, 0x2d, 0x7f, 0x3c,
  0x75, 0x50, 0xa0, 0x3b, 0x80, 0x06, 0x4d, 0x3c, 0x20, 0x3b, 0xc7, 0x3b,
  0xd5, 0x95, 0xe1, 0x3b, 0x04, 0xc3, 0x5c, 0x3c, 0xc0, 0xca, 0x0a, 0x3b,
  0x36, 0x90, 0x97, 0x3b, 0x61, 0xf4, 0x56, 0x3d, 0x94, 0x0e, 0x5f, 0x3d,
  0xae, 0x62, 0x45, 0x3d, 0x79, 0x61, 0x66, 0x3d, 0x00, 0x38, 0x8c, 0x3d,
  0x53, 0x05, 0x5e, 0x3d, 0x17, 0x24, 0x78, 0x3d, 0x8a, 0x47, 0x96, 0x3d,
  0xcc, 0x78, 0x6f, 0x3d, 0x72, 0x0c, 0x28, 0x3d, 0xbc, 0x88, 0x5d, 0x3d,
  0x61, 0x92, 0x0e, 0x3d, 0x23, 0x7b, 0x5e, 0x3d, 0xc7, 0x4f, 0x06, 0x3d,
  0x28, 0xd0, 0x86, 0x3d, 0x63, 0x87, 0x9b, 0x3d, 0x12, 0x00, 0x00, 0x00,
  0x74, 0x66, 0x6c, 0x2e, 0x70, 0x73, 0x65, 0x75, 0x64, 0x6f, 0x5f, 0x71,
  0x63, 0x6f, 0x6e, 0x73, 0x74, 0x39, 0x00, 0x00, 0x02, 0x00, 0x00, 0x00,
  0x30, 0x00, 0x00, 0x00, 0x10, 0x00, 0x00, 0x00, 0x1e, 0xd8, 0xff, 0xff,
  0x00, 0x00, 0x00, 0x01, 0x14, 0x00, 0x00, 0x00, 0x64, 0x02, 0x00, 0x00,
  0x42, 0x00, 0x00, 0x00, 0x00, 0x00, 0x00, 0x02, 0x70, 0x02, 0x00, 0x00,
  0x1c, 0xdb, 0xff, 0xff, 0x08, 0x00, 0x00, 0x00, 0x88, 0x01, 0x00, 0x00,
  0x30, 0x00, 0x00, 0x00, 0x00, 0x00, 0x00, 0x00, 0x00, 0x00, 0x00, 0x00,
  0x00, 0x00, 0x00, 0x00, 0x00, 0x00, 0x00, 0x00, 0x00, 0x00, 0x00, 0x00,
  0x00, 0x00, 0x00, 0x00, 0x00, 0x00, 0x00, 0x00, 0x00, 0x00, 0x00, 0x00,
  0x00, 0x00, 0x00, 0x00, 0x00, 0x00, 0x00, 0x00, 0x00, 0x00, 0x00, 0x00,
  0x00, 0x00, 0x00, 0x00, 0x00, 0x00, 0x00, 0x00, 0x00, 0x00, 0x00, 0x00,
  0x00, 0x00, 0x00, 0x00, 0x00, 0x00, 0x00, 0x00, 0x00, 0x00, 0x00, 0x00,
  0x00, 0x00, 0x00, 0x00, 0x00, 0x00, 0x00, 0x00, 0x00, 0x00, 0x00, 0x00,
  0x00, 0x00, 0x00, 0x00, 0x00, 0x00, 0x00, 0x00, 0x00, 0x00, 0x00, 0x00,
  0x00, 0x00, 0x00, 0x00, 0x00, 0x00, 0x00, 0x00, 0x00, 0x00, 0x00, 0x00,
  0x00, 0x00, 0x00, 0x00, 0x00, 0x00, 0x00, 0x00, 0x00, 0x00, 0x00, 0x00,
  0x00, 0x00, 0x00, 0x00, 0x00, 0x00, 0x00, 0x00, 0x00, 0x00, 0x00, 0x00,
  0x00, 0x00, 0x00, 0x00, 0x00, 0x00, 0x00, 0x00, 0x00, 0x00, 0x00, 0x00,
  0x00, 0x00, 0x00, 0x00, 0x00, 0x00, 0x00, 0x00, 0x00, 0x00, 0x00, 0x00,
  0x00, 0x00, 0x00, 0x00, 0x00, 0x00, 0x00, 0x00, 0x00, 0x00, 0x00, 0x00,
  0x00, 0x00, 0x00, 0x00, 0x00, 0x00, 0x00, 0x00, 0x00, 0x00, 0x00, 0x00,
  0x00, 0x00, 0x00, 0x00, 0x00, 0x00, 0x00, 0x00, 0x00, 0x00, 0x00, 0x00,
  0x00, 0x00, 0x00, 0x00, 0x00, 0x00, 0x00, 0x00, 0x00, 0x00, 0x00, 0x00,
  0x00, 0x00, 0x00, 0x00, 0x00, 0x00, 0x00, 0x00, 0x00, 0x00, 0x00, 0x00,
  0x00, 0x00, 0x00, 0x00, 0x00, 0x00, 0x00, 0x00, 0x00, 0x00, 0x00, 0x00,
  0x00, 0x00, 0x00, 0x00, 0x00, 0x00, 0x00, 0x00, 0x00, 0x00, 0x00, 0x00,
  0x00, 0x00, 0x00, 0x00, 0x00, 0x00, 0x00, 0x00, 0x00, 0x00, 0x00, 0x00,
  0x00, 0x00, 0x00, 0x00, 0x00, 0x00, 0x00, 0x00, 0x00, 0x00, 0x00, 0x00,
  0x00, 0x00, 0x00, 0x00, 0x00, 0x00, 0x00, 0x00, 0x00, 0x00, 0x00, 0x00,
  0x00, 0x00, 0x00, 0x00, 0x00, 0x00, 0x00, 0x00, 0x00, 0x00, 0x00, 0x00,
  0x00, 0x00, 0x00, 0x00, 0x00, 0x00, 0x00, 0x00, 0x00, 0x00, 0x00, 0x00,
  0x00, 0x00, 0x00, 0x00, 0x00, 0x00, 0x00, 0x00, 0x00, 0x00, 0x00, 0x00,
  0x00, 0x00, 0x00, 0x00, 0x00, 0x00, 0x00, 0x00, 0x00, 0x00, 0x00, 0x00,
  0x00, 0x00, 0x00, 0x00, 0x00, 0x00, 0x00, 0x00, 0x00, 0x00, 0x00, 0x00,
  0x00, 0x00, 0x00, 0x00, 0x00, 0x00, 0x00, 0x00, 0x00, 0x00, 0x00, 0x00,
  0x00, 0x00, 0x00, 0x00, 0x00, 0x00, 0x00, 0x00, 0x00, 0x00, 0x00, 0x00,
  0x00, 0x00, 0x00, 0x00, 0x00, 0x00, 0x00, 0x00, 0x00, 0x00, 0x00, 0x00,
  0x00, 0x00, 0x00, 0x00, 0x00, 0x00, 0x00, 0x00, 0x00, 0x00, 0x00, 0x00,
  0x00, 0x00, 0x00, 0x00, 0x30, 0x00, 0x00, 0x00, 0x11, 0x57, 0x66, 0x2e,
  0xe8, 0x56, 0xdf, 0x2d, 0xfa, 0x48, 0x3f, 0x30, 0x6e, 0xfe, 0x3d, 0x30,
  0x2e, 0xdb, 0x96, 0x2f, 0x09, 0x02, 0x0b, 0x2f, 0x00, 0x54, 0x1b, 0x30,
  0xd0, 0x61, 0xdb, 0x2f, 0x4b, 0xec, 0x02, 0x30, 0x69, 0xed, 0x29, 0x30,
  0xee, 0xc4, 0xf5, 0x2f, 0x50, 0xc3, 0x69, 0x30, 0x90, 0x37, 0x80, 0x30,
  0xc5, 0x27, 0x3e, 0x30, 0xc5, 0x57, 0x65, 0x30, 0x44, 0x66, 0x2d, 0x30,
  0xee, 0x74, 0x10, 0x2e, 0x8f, 0x25, 0x5c, 0x2e, 0x81, 0x3c, 0xd5, 0x2e,
  0x68, 0x63, 0x81, 0x2e, 0xaf, 0xea, 0x8b, 0x2e, 0xe5, 0x51, 0x5a, 0x2f,
  0x86, 0xcf, 0x17, 0x2f, 0x8a, 0x75, 0xbf, 0x2e, 0xda, 0x4f, 0x06, 0x2f,
  0xcc, 0xc2, 0x28, 0x2e, 0xe9, 0xd3, 0xd7, 0x2e, 0x61, 0xba, 0x51, 0x2e,
  0x8e, 0x78, 0x6d, 0x2e, 0xae, 0x64, 0xe8, 0x2e, 0xcb, 0x1a, 0x92, 0x2d,
  0x84, 0x8c, 0x1f, 0x2e, 0xb7, 0x47, 0xe2, 0x2f, 0x33, 0xcf, 0xea, 0x2f,
  0x0a, 0xc9, 0xcf, 0x2f, 0xe1, 0x84, 0xf2, 0x2f, 0x4a, 0x9b, 0x13, 0x30,
  0xf8, 0xb7, 0xe9, 0x2f, 0x86, 0x9b, 0x02, 0x30, 0x87, 0x32, 0x1e, 0x30,
  0xd3, 0x16, 0xfc, 0x2f, 0x1b, 0xe7, 0xb0, 0x2f, 0xd1, 0x34, 0xe9, 0x2f,
  0x68, 0x15, 0x96, 0x2f, 0xfd, 0x33, 0xea, 0x2f, 0x64, 0x63, 0x8d, 0x2f,
  0x88, 0xea, 0x0d, 0x30, 0x2e, 0xb9, 0x23, 0x30, 0x12, 0x00, 0x00, 0x00,
  0x74, 0x66, 0x6c, 0x2e, 0x70, 0x73, 0x65, 0x75, 0x64, 0x6f, 0x5f, 0x71,
  0x63, 0x6f, 0x6e, 0x73, 0x74, 0x38, 0x00, 0x00, 0x01, 0x00, 0x00, 0x00,
  0x30, 0x00, 0x00, 0x00, 0xae, 0xda, 0xff, 0xff, 0x00, 0x00, 0x00, 0x01,
  0x14, 0x00, 0x00, 0x00, 0x68, 0x02, 0x00, 0x00, 0x41, 0x00, 0x00, 0x00,
  0x00, 0x00, 0x00, 0x09, 0x74, 0x02, 0x00, 0x00, 0xac, 0xdd, 0xff, 0xff,
  0x08, 0x00, 0x00, 0x00, 0x8c, 0x01, 0x00, 0x00, 0x30, 0x00, 0x00, 0x00,
  0x00, 0x00, 0x00, 0x00, 0x00, 0x00, 0x00, 0x00, 0x00, 0x00, 0x00, 0x00,
  0x00, 0x00, 0x00, 0x00, 0x00, 0x00, 0x00, 0x00, 0x00, 0x00, 0x00, 0x00,
  0x00, 0x00, 0x00, 0x00, 0x00, 0x00, 0x00, 0x00, 0x00, 0x00, 0x00, 0x00,
  0x00, 0x00, 0x00, 0x00, 0x00, 0x00, 0x00, 0x00, 0x00, 0x00, 0x00, 0x00,
  0x00, 0x00, 0x00, 0x00, 0x00, 0x00, 0x00, 0x00, 0x00, 0x00, 0x00, 0x00,
  0x00, 0x00, 0x00, 0x00, 0x00, 0x00, 0x00, 0x00, 0x00, 0x00, 0x00, 0x00,
  0x00, 0x00, 0x00, 0x00, 0x00, 0x00, 0x00, 0x00, 0x00, 0x00, 0x00, 0x00,
  0x00, 0x00, 0x00, 0x00, 0x00, 0x00, 0x00, 0x00, 0x00, 0x00, 0x00, 0x00,
  0x00, 0x00, 0x00, 0x00, 0x00, 0x00, 0x00, 0x00, 0x00, 0x00, 0x00, 0x00,
  0x00, 0x00, 0x00, 0x00, 0x00, 0x00, 0x00, 0x00, 0x00, 0x00, 0x00, 0x00,
  0x00, 0x00, 0x00, 0x00, 0x00, 0x00, 0x00, 0x00, 0x00, 0x00, 0x00, 0x00,
  0x00, 0x00, 0x00, 0x00, 0x00, 0x00, 0x00, 0x00, 0x00, 0x00, 0x00, 0x00,
  0x00, 0x00, 0x00, 0x00, 0x00, 0x00, 0x00, 0x00, 0x00, 0x00, 0x00, 0x00,
  0x00, 0x00, 0x00, 0x00, 0x00, 0x00, 0x00, 0x00, 0x00, 0x00, 0x00, 0x00,
  0x00, 0x00, 0x00, 0x00, 0x00, 0x00, 0x00, 0x00, 0x00, 0x00, 0x00, 0x00,
  0x00, 0x00, 0x00, 0x00, 0x00, 0x00, 0x00, 0x00, 0x00, 0x00, 0x00, 0x00,
  0x00, 0x00, 0x00, 0x00, 0x00, 0x00, 0x00, 0x00, 0x00, 0x00, 0x00, 0x00,
  0x00, 0x00, 0x00, 0x00, 0x00, 0x00, 0x00, 0x00, 0x00, 0x00, 0x00, 0x00,
  0x00, 0x00, 0x00, 0x00, 0x00, 0x00, 0x00, 0x00, 0x00, 0x00, 0x00, 0x00,
  0x00, 0x00, 0x00, 0x00, 0x00, 0x00, 0x00, 0x00, 0x00, 0x00, 0x00, 0x00,
  0x00, 0x00, 0x00, 0x00, 0x00, 0x00, 0x00, 0x00, 0x00, 0x00, 0x00, 0x00,
  0x00, 0x00, 0x00, 0x00, 0x00, 0x00, 0x00, 0x00, 0x00, 0x00, 0x00, 0x00,
  0x00, 0x00, 0x00, 0x00, 0x00, 0x00, 0x00, 0x00, 0x00, 0x00, 0x00, 0x00,
  0x00, 0x00, 0x00, 0x00, 0x00, 0x00, 0x00, 0x00, 0x00, 0x00, 0x00, 0x00,
  0x00, 0x00, 0x00, 0x00, 0x00, 0x00, 0x00, 0x00, 0x00, 0x00, 0x00, 0x00,
  0x00, 0x00, 0x00, 0x00, 0x00, 0x00, 0x00, 0x00, 0x00, 0x00, 0x00, 0x00,
  0x00, 0x00, 0x00, 0x00, 0x00, 0x00, 0x00, 0x00, 0x00, 0x00, 0x00, 0x00,
  0x00, 0x00, 0x00, 0x00, 0x00, 0x00, 0x00, 0x00, 0x00, 0x00, 0x00, 0x00,
  0x00, 0x00, 0x00, 0x00, 0x00, 0x00, 0x00, 0x00, 0x00, 0x00, 0x00, 0x00,
  0x00, 0x00, 0x00, 0x00, 0x00, 0x00, 0x00, 0x00, 0x00, 0x00, 0x00, 0x00,
  0x00, 0x00, 0x00, 0x00, 0x00, 0x00, 0x00, 0x00, 0x00, 0x00, 0x00, 0x00,
  0x00, 0x00, 0x00, 0x00, 0x00, 0x00, 0x00, 0x00, 0x00, 0x00, 0x00, 0x00,
  0x00, 0x00, 0x00, 0x00, 0x30, 0x00, 0x00, 0x00, 0x0d, 0x2a, 0xbf, 0x3c,
  0xd4, 0xec, 0xaa, 0x3c, 0x03, 0x98, 0x99, 0x3c, 0x97, 0xca, 0x95, 0x3c,
  0xef, 0x25, 0x05, 0x3d, 0xdb, 0x53, 0xa2, 0x3c, 0x1f, 0xa3, 0x7a, 0x3c,
  0x2f, 0xcb, 0x99, 0x3c, 0xf3, 0x7e, 0x1f, 0x3c, 0xa9, 0x1d, 0x9f, 0x3c,
  0xaf, 0x95, 0x4c, 0x3c, 0x67, 0x88, 0x97, 0x3c, 0xfb, 0x72, 0x51, 0x3c,
  0xe3, 0xfd, 0x1a, 0x3c, 0x4a, 0xf8, 0x26, 0x3c, 0x8d, 0xe8, 0x70, 0x3c,
  0x6b, 0xe4, 0x5e, 0x3c, 0x8c, 0xbc, 0x1f, 0x3c, 0x60, 0x63, 0x46, 0x3c,
  0x3f, 0x89, 0x79, 0x3c, 0x45, 0xc1, 0x8f, 0x3c, 0xb0, 0x6e, 0x2f, 0x3c,
  0x65, 0x94, 0x87, 0x3c, 0xa9, 0xb6, 0x9e, 0x3c, 0x17, 0x8a, 0x77, 0x3c,
  0x21, 0x48, 0x5c, 0x3c, 0x1d, 0x28, 0x54, 0x3c, 0x62, 0x6f, 0x21, 0x3c,
  0x28, 0x5d, 0x55, 0x3c, 0x09, 0x34, 0x86, 0x3c, 0x7f, 0x25, 0xad, 0x3c,
  0xf2, 0xfd, 0xd4, 0x3c, 0x99, 0xdd, 0x76, 0x3c, 0xb3, 0xf6, 0x24, 0x3c,
  0x6b, 0x6b, 0x4b, 0x3c, 0x74, 0xb4, 0x4b, 0x3c, 0x0a, 0x31, 0x51, 0x3c,
  0x20, 0xb3, 0x25, 0x3c, 0x8a, 0x09, 0x37, 0x3c, 0x9f, 0x0a, 0x48, 0x3c,
  0xd8, 0x79, 0xd6, 0x3b, 0xac, 0xb9, 0x7b, 0x3c, 0x88, 0x31, 0x80, 0x3c,
  0xde, 0x7a, 0x29, 0x3c, 0xfd, 0x4d, 0x24, 0x3c, 0xb8, 0x29, 0x81, 0x3c,
  0xcd, 0xed, 0x9e, 0x3c, 0xce, 0x4d, 0xa8, 0x3c, 0x12, 0x00, 0x00, 0x00,
  0x74, 0x66, 0x6c, 0x2e, 0x70, 0x73, 0x65, 0x75, 0x64, 0x6f, 0x5f, 0x71,
  0x63, 0x6f, 0x6e, 0x73, 0x74, 0x37, 0x00, 0x00, 0x02, 0x00, 0x00, 0x00,
  0x30, 0x00, 0x00, 0x00, 0x10, 0x00, 0x00, 0x00, 0x46, 0xdd, 0xff, 0xff,
  0x00, 0x00, 0x00, 0x01, 0x14, 0x00, 0x00, 0x00, 0x64, 0x02, 0x00, 0x00,
  0x40, 0x00, 0x00, 0x00, 0x00, 0x00, 0x00, 0x02, 0x70, 0x02, 0x00, 0x00,
  0x44, 0xe0, 0xff, 0xff, 0x08, 0x00, 0x00, 0x00, 0x88, 0x01, 0x00, 0x00,
  0x30, 0x00, 0x00, 0x00, 0x00, 0x00, 0x00, 0x00, 0x00, 0x00, 0x00, 0x00,
  0x00, 0x00, 0x00, 0x00, 0x00, 0x00, 0x00, 0x00, 0x00, 0x00, 0x00, 0x00,
  0x00, 0x00, 0x00, 0x00, 0x00, 0x00, 0x00, 0x00, 0x00, 0x00, 0x00, 0x00,
  0x00, 0x00, 0x00, 0x00, 0x00, 0x00, 0x00, 0x00, 0x00, 0x00, 0x00, 0x00,
  0x00, 0x00, 0x00, 0x00, 0x00, 0x00, 0x00, 0x00, 0x00, 0x00, 0x00, 0x00,
  0x00, 0x00, 0x00, 0x00, 0x00, 0x00, 0x00, 0x00, 0x00, 0x00, 0x00, 0x00,
  0x00, 0x00, 0x00, 0x00, 0x00, 0x00, 0x00, 0x00, 0x00, 0x00, 0x00, 0x00,
  0x00, 0x00, 0x00, 0x00, 0x00, 0x00, 0x00, 0x00, 0x00, 0x00, 0x00, 0x00,
  0x00, 0x00, 0x00, 0x00, 0x00, 0x00, 0x00, 0x00, 0x00, 0x00, 0x00, 0x00,
  0x00, 0x00, 0x00, 0x00, 0x00, 0x00, 0x00, 0x00, 0x00, 0x00, 0x00, 0x00,
  0x00, 0x00, 0x00, 0x00, 0x00, 0x00, 0x00, 0x00, 0x00, 0x00, 0x00, 0x00,
  0x00, 0x00, 0x00, 0x00, 0x00, 0x00, 0x00, 0x00, 0x00, 0x00, 0x00, 0x00,
  0x00, 0x00, 0x00, 0x00, 0x00, 0x00, 0x00, 0x00, 0x00, 0x00, 0x00, 0x00,
  0x00, 0x00, 0x00, 0x00, 0x00, 0x00, 0x00, 0x00, 0x00, 0x00, 0x00, 0x00,
  0x00, 0x00, 0x00, 0x00, 0x00, 0x00, 0x00, 0x00, 0x00, 0x00, 0x00, 0x00,
  0x00, 0x00, 0x00, 0x00, 0x00, 0x00, 0x00, 0x00, 0x00, 0x00, 0x00, 0x00,
  0x00, 0x00, 0x00, 0x00, 0x00, 0x00, 0x00, 0x00, 0x00, 0x00, 0x00, 0x00,
  0x00, 0x00, 0x00, 0x00, 0x00, 0x00, 0x00, 0x00, 0x00, 0x00, 0x00, 0x00,
  0x00, 0x00, 0x00, 0x00, 0x00, 0x00, 0x00, 0x00, 0x00, 0x00, 0x00, 0x00,
  0x00, 0x00, 0x00, 0x00, 0x00, 0x00, 0x00, 0x00, 0x00, 0x00, 0x00, 0x00,
  0x00, 0x00, 0x00, 0x00, 0x00, 0x00, 0x00, 0x00, 0x00, 0x00, 0x00, 0x00,
  0x00, 0x00, 0x00, 0x00, 0x00, 0x00, 0x00, 0x00, 0x00, 0x00, 0x00, 0x00,
  0x00, 0x00, 0x00, 0x00, 0x00, 0x00, 0x00, 0x00, 0x00, 0x00, 0x00, 0x00,
  0x00, 0x00, 0x00, 0x00, 0x00, 0x00, 0x00, 0x00, 0x00, 0x00, 0x00, 0x00,
  0x00, 0x00, 0x00, 0x00, 0x00, 0x00, 0x00, 0x00, 0x00, 0x00, 0x00, 0x00,
  0x00, 0x00, 0x00, 0x00, 0x00, 0x00, 0x00, 0x00, 0x00, 0x00, 0x00, 0x00,
  0x00, 0x00, 0x00, 0x00, 0x00, 0x00, 0x00, 0x00, 0x00, 0x00, 0x00, 0x00,
  0x00, 0x00, 0x00, 0x00, 0x00, 0x00, 0x00, 0x00, 0x00, 0x00, 0x00, 0x00,
  0x00, 0x00, 0x00, 0x00, 0x00, 0x00, 0x00, 0x00, 0x00, 0x00, 0x00, 0x00,
  0x00, 0x00, 0x00, 0x00, 0x00, 0x00, 0x00, 0x00, 0x00, 0x00, 0x00, 0x00,
  0x00, 0x00, 0x00, 0x00, 0x00, 0x00, 0x00, 0x00, 0x00, 0x00, 0x00, 0x00,
  0x00, 0x00, 0x00, 0x00, 0x00, 0x00, 0x00, 0x00, 0x00, 0x00, 0x00, 0x00,
  0x00, 0x00, 0x00, 0x00, 0x30, 0x00, 0x00, 0x00, 0x44, 0xba, 0x2e, 0x3b,
  0x89, 0x3a, 0x1c, 0x3b, 0x34, 0x63, 0x0c, 0x3b, 0x7b, 0xe9, 0x08, 0x3b,
  0x53, 0x66, 0x73, 0x3b, 0xce, 0x5e, 0x14, 0x3b, 0x42, 0x16, 0xe5, 0x3a,
  0xfa, 0x91, 0x0c, 0x3b, 0x3b, 0xc8, 0x91, 0x3a, 0x4e, 0x6f, 0x11, 0x3b,
  0x7f, 0xfe, 0xba, 0x3a, 0xf6, 0x80, 0x0a, 0x3b, 0xb9, 0x70, 0xbf, 0x3a,
  0x4f, 0xaa, 0x8d, 0x3a, 0x0e, 0x9d, 0x98, 0x3a, 0xd5, 0x31, 0xdc, 0x3a,
  0x42, 0xba, 0xcb, 0x3a, 0x88, 0x00, 0x92, 0x3a, 0x95, 0x54, 0xb5, 0x3a,
  0x9e, 0x14, 0xe4, 0x3a, 0x07, 0x65, 0x03, 0x3b, 0x2f, 0x59, 0xa0, 0x3a,
  0x35, 0xd8, 0xf7, 0x3a, 0x29, 0x11, 0x11, 0x3b, 0x6a, 0x41, 0xe2, 0x3a,
  0x6e, 0x57, 0xc9, 0x3a, 0x42, 0xea, 0xc1, 0x3a, 0xfa, 0x8d, 0x93, 0x3a,
  0xba, 0x04, 0xc3, 0x3a, 0x14, 0x54, 0xf5, 0x3a, 0x4f, 0x42, 0x1e, 0x3b,
  0xb4, 0xad, 0x42, 0x3b, 0xc0, 0xa3, 0xe1, 0x3a, 0xa0, 0xc7, 0x96, 0x3a,
  0xe1, 0xed, 0xb9, 0x3a, 0xa2, 0x30, 0xba, 0x3a, 0x73, 0x34, 0xbf, 0x3a,
  0xda, 0x73, 0x97, 0x3a, 0xa4, 0x4c, 0xa7, 0x3a, 0x70, 0xd7, 0xb6, 0x3a,
  0xf0, 0x08, 0x44, 0x3a, 0xdc, 0x14, 0xe6, 0x3a, 0xa4, 0x57, 0xea, 0x3a,
  0x62, 0xe8, 0x9a, 0x3a, 0x6c, 0x2d, 0x96, 0x3a, 0x56, 0x1d, 0xec, 0x3a,
  0x8f, 0x43, 0x11, 0x3b, 0x35, 0xd5, 0x19, 0x3b, 0x12, 0x00, 0x00, 0x00,
  0x74, 0x66, 0x6c, 0x2e, 0x70, 0x73, 0x65, 0x75, 0x64, 0x6f, 0x5f, 0x71,
  0x63, 0x6f, 0x6e, 0x73, 0x74, 0x36, 0x00, 0x00, 0x01, 0x00, 0x00, 0x00,
  0x30, 0x00, 0x00, 0x00, 0xd6, 0xdf, 0xff, 0xff, 0x00, 0x00, 0x00, 0x01,
  0x14, 0x00, 0x00, 0x00, 0x34, 0x00, 0x00, 0x00, 0x3f, 0x00, 0x00, 0x00,
  0x00, 0x00, 0x00, 0x09, 0x40, 0x00, 0x00, 0x00, 0xd4, 0xe2, 0xff, 0xff,
  0x08, 0x00, 0x00, 0x00, 0x14, 0x00, 0x00, 0x00, 0x01, 0x00, 0x00, 0x00,
  0x80, 0xff, 0xff, 0xff, 0xff, 0xff, 0xff, 0xff, 0x00, 0x00, 0x00, 0x00,
  0x01, 0x00, 0x00, 0x00, 0x81, 0x80, 0x80, 0x3b, 0x12, 0x00, 0x00, 0x00,
  0x74, 0x66, 0x6c, 0x2e, 0x70, 0x73, 0x65, 0x75, 0x64, 0x6f, 0x5f, 0x71,
  0x63, 0x6f, 0x6e, 0x73, 0x74, 0x35, 0x00, 0x00, 0x00, 0x00, 0x00, 0x00,
  0x32, 0xe0, 0xff, 0xff, 0x00, 0x00, 0x00, 0x01, 0x14, 0x00, 0x00, 0x00,
  0x14, 0x00, 0x00, 0x00, 0x06, 0x00, 0x00, 0x00, 0x00, 0x00, 0x00, 0x02,
  0x20, 0x00, 0x00, 0x00, 0xbc, 0xdf, 0xff, 0xff, 0x10, 0x00, 0x00, 0x00,
  0x61, 0x72, 0x69, 0x74, 0x68, 0x2e, 0x63, 0x6f, 0x6e, 0x73, 0x74, 0x61,
  0x6e, 0x74, 0x31, 0x39, 0x00, 0x00, 0x00, 0x00, 0x00, 0x00, 0x00, 0x00,
  0x6e, 0xe0, 0xff, 0xff, 0x00, 0x00, 0x00, 0x01, 0x14, 0x00, 0x00, 0x00,
  0x14, 0x00, 0x00, 0x00, 0x3d, 0x00, 0x00, 0x00, 0x00, 0x00, 0x00, 0x02,
  0x20, 0x00, 0x00, 0x00, 0xf8, 0xdf, 0xff, 0xff, 0x10, 0x00, 0x00, 0x00,
  0x61, 0x72, 0x69, 0x74, 0x68, 0x2e, 0x63, 0x6f, 0x6e, 0x73, 0x74, 0x61,
  0x6e, 0x74, 0x31, 0x38, 0x00, 0x00, 0x00, 0x00, 0x00, 0x00, 0x00, 0x00,
  0xaa, 0xe0, 0xff, 0xff, 0x00, 0x00, 0x00, 0x01, 0x14, 0x00, 0x00, 0x00,
  0x14, 0x00, 0x00, 0x00, 0x3c, 0x00, 0x00, 0x00, 0x00, 0x00, 0x00, 0x02,
  0x20, 0x00, 0x00, 0x00, 0x34, 0xe0, 0xff, 0xff, 0x10, 0x00, 0x00, 0x00,
  0x61, 0x72, 0x69, 0x74, 0x68, 0x2e, 0x63, 0x6f, 0x6e, 0x73, 0x74, 0x61,
  0x6e, 0x74, 0x31, 0x37, 0x00, 0x00, 0x00, 0x00, 0x01, 0x00, 0x00, 0x00,
  0x02, 0x00, 0x00, 0x00, 0xea, 0xe0, 0xff, 0xff, 0x00, 0x00, 0x00, 0x01,
  0x14, 0x00, 0x00, 0x00, 0x14, 0x00, 0x00, 0x00, 0x3b, 0x00, 0x00, 0x00,
  0x00, 0x00, 0x00, 0x02, 0x20, 0x00, 0x00, 0x00, 0x74, 0xe0, 0xff, 0xff,
  0x10, 0x00, 0x00, 0x00, 0x61, 0x72, 0x69, 0x74, 0x68, 0x2e, 0x63, 0x6f,
  0x6e, 0x73, 0x74, 0x61, 0x6e, 0x74, 0x31, 0x35, 0x00, 0x00, 0x00, 0x00,
  0x01, 0x00, 0x00, 0x00, 0x02, 0x00, 0x00, 0x00, 0x2a, 0xe1, 0xff, 0xff,
  0x00, 0x00, 0x00, 0x01, 0x14, 0x00, 0x00, 0x00, 0x14, 0x00, 0x00, 0x00,
  0x3a, 0x00, 0x00, 0x00, 0x00, 0x00, 0x00, 0x02, 0x20, 0x00, 0x00, 0x00,
  0xb4, 0xe0, 0xff, 0xff, 0x10, 0x00, 0x00, 0x00, 0x61, 0x72, 0x69, 0x74,
  0x68, 0x2e, 0x63, 0x6f, 0x6e, 0x73, 0x74, 0x61, 0x6e, 0x74, 0x31, 0x34,
  0x00, 0x00, 0x00, 0x00, 0x01, 0x00, 0x00, 0x00, 0x02, 0x00, 0x00, 0x00,
  0x6a, 0xe1, 0xff, 0xff, 0x00, 0x00, 0x00, 0x01, 0x14, 0x00, 0x00, 0x00,
  0x14, 0x00, 0x00, 0x00, 0x39, 0x00, 0x00, 0x00, 0x00, 0x00, 0x00, 0x02,
  0x20, 0x00, 0x00, 0x00, 0xf4, 0xe0, 0xff, 0xff, 0x10, 0x00, 0x00, 0x00,
  0x61, 0x72, 0x69, 0x74, 0x68, 0x2e, 0x63, 0x6f, 0x6e, 0x73, 0x74, 0x61,
  0x6e, 0x74, 0x31, 0x33, 0x00, 0x00, 0x00, 0x00, 0x01, 0x00, 0x00, 0x00,
  0x02, 0x00, 0x00, 0x00, 0xaa, 0xe1, 0xff, 0xff, 0x00, 0x00, 0x00, 0x01,
  0x14, 0x00, 0x00, 0x00, 0x14, 0x00, 0x00, 0x00, 0x04, 0x00, 0x00, 0x00,
  0x00, 0x00, 0x00, 0x02, 0x20, 0x00, 0x00, 0x00, 0x34, 0xe1, 0xff, 0xff,
  0x10, 0x00, 0x00, 0x00, 0x61, 0x72, 0x69, 0x74, 0x68, 0x2e, 0x63, 0x6f,
  0x6e, 0x73, 0x74, 0x61, 0x6e, 0x74, 0x31, 0x32, 0x00, 0x00, 0x00, 0x00,
  0x00, 0x00, 0x00, 0x00, 0x96, 0xe1, 0xff, 0xff, 0x00, 0x00, 0x00, 0x01,
  0x14, 0x00, 0x00, 0x00, 0x20, 0x00, 0x00, 0x00, 0x20, 0x00, 0x00, 0x00,
  0x37, 0x00, 0x00, 0x00, 0x40, 0x00, 0x00, 0x00, 0x03, 0x00, 0x00, 0x00,
  0x01, 0x00, 0x00, 0x00, 0xff, 0xff, 0xff, 0xff, 0x10, 0x00, 0x00, 0x00,
  0x80, 0xe1, 0xff, 0xff, 0x22, 0x00, 0x00, 0x00, 0x73, 0x65, 0x71, 0x75,
  0x65, 0x6e, 0x74, 0x69, 0x61, 0x6c, 0x5f, 0x31, 0x2f, 0x67, 0x72, 0x75,
  0x5f, 0x31, 0x2f, 0x77, 0x68, 0x69, 0x6c, 0x65, 0x5f, 0x62, 0x6f, 0x64,
  0x79, 0x5f, 0x61, 0x72, 0x67, 0x34, 0x00, 0x00, 0x03, 0x00, 0x00, 0x00,
  0x01, 0x00, 0x00, 0x00, 0x01, 0x00, 0x00, 0x00, 0x10, 0x00, 0x00, 0x00,
  0xfe, 0xe1, 0xff, 0xff, 0x00, 0x00, 0x00, 0x01, 0x14, 0x00, 0x00, 0x00,
  0x1c, 0x00, 0x00, 0x00, 0x1c, 0x00, 0x00, 0x00, 0x36, 0x00, 0x00, 0x00,
  0x3c, 0x00, 0x00, 0x00, 0x02, 0x00, 0x00, 0x00, 0xff, 0xff, 0xff, 0xff,
  0x10, 0x00, 0x00, 0x00, 0xe4, 0xe1, 0xff, 0xff, 0x22, 0x00, 0x00, 0x00,
  0x73, 0x65, 0x71, 0x75, 0x65, 0x6e, 0x74, 0x69, 0x61, 0x6c, 0x5f, 0x31,
  0x2f, 0x67, 0x72, 0x75, 0x5f, 0x31, 0x2f, 0x77, 0x68, 0x69, 0x6c, 0x65,
  0x5f, 0x62, 0x6f, 0x64, 0x79, 0x5f, 0x61, 0x72, 0x67, 0x33, 0x00, 0x00,
  0x02, 0x00, 0x00, 0x00, 0x01, 0x00, 0x00, 0x00, 0x10, 0x00, 0x00, 0x00,
  0x54, 0xea, 0xff, 0xff, 0x1c, 0x00, 0x00, 0x00, 0x00, 0x00, 0x00, 0x01,
  0x34, 0x00, 0x00, 0x00, 0x34, 0x00, 0x00, 0x00, 0x35, 0x00, 0x00, 0x00,
  0x00, 0x00, 0x00, 0x0e, 0x50, 0x00, 0x00, 0x00, 0x01, 0x00, 0x00, 0x00,
  0x04, 0x00, 0x00, 0x00, 0x3a, 0xea, 0xff, 0xff, 0x00, 0x00, 0x00, 0x01,
  0x04, 0x00, 0x00, 0x00, 0x02, 0x00, 0x00, 0x00, 0x00, 0x00, 0x00, 0x00,
  0x10, 0x00, 0x00, 0x00, 0x5c, 0xe2, 0xff, 0xff, 0x22, 0x00, 0x00, 0x00,
  0x73, 0x65, 0x71, 0x75, 0x65, 0x6e, 0x74, 0x69, 0x61, 0x6c, 0x5f, 0x31,
  0x2f, 0x67, 0x72, 0x75, 0x5f, 0x31, 0x2f, 0x77, 0x68, 0x69, 0x6c, 0x65,
  0x5f, 0x62, 0x6f, 0x64, 0x79, 0x5f, 0x61, 0x72, 0x67, 0x32, 0x00, 0x00,
  0x00, 0x00, 0x00, 0x00, 0x1e, 0xe3, 0xff, 0xff, 0x00, 0x00, 0x00, 0x01,
  0x14, 0x00, 0x00, 0x00, 0x14, 0x00, 0x00, 0x00, 0x34, 0x00, 0x00, 0x00,
  0x00, 0x00, 0x00, 0x02, 0x30, 0x00, 0x00, 0x00, 0xa8, 0xe2, 0xff, 0xff,
  0x22, 0x00, 0x00, 0x00, 0x73, 0x65, 0x71, 0x75, 0x65, 0x6e, 0x74, 0x69,
  0x61, 0x6c, 0x5f, 0x31, 0x2f, 0x67, 0x72, 0x75, 0x5f, 0x31, 0x2f, 0x77,
  0x68, 0x69, 0x6c, 0x65, 0x5f, 0x62, 0x6f, 0x64, 0x79, 0x5f, 0x61, 0x72,
  0x67, 0x31, 0x00, 0x00, 0x00, 0x00, 0x00, 0x00, 0x6a, 0xe3, 0xff, 0xff,
  0x00, 0x00, 0x00, 0x01, 0x14, 0x00, 0x00, 0x00, 0x14, 0x00, 0x00, 0x00,
  0x33, 0x00, 0x00, 0x00, 0x00, 0x00, 0x00, 0x02, 0x30, 0x00, 0x00, 0x00,
  0xf4, 0xe2, 0xff, 0xff, 0x22, 0x00, 0x00, 0x00, 0x73, 0x65, 0x71, 0x75,
  0x65, 0x6e, 0x74, 0x69, 0x61, 0x6c, 0x5f, 0x31, 0x2f, 0x67, 0x72, 0x75,
  0x5f, 0x31, 0x2f, 0x77, 0x68, 0x69, 0x6c, 0x65, 0x5f, 0x62, 0x6f, 0x64,
  0x79, 0x5f, 0x61, 0x72, 0x67, 0x30, 0x00, 0x00, 0x00, 0x00, 0x00, 0x00,
  0x16, 0xfc, 0xff, 0xff, 0x14, 0x00, 0x00, 0x00, 0x34, 0x00, 0x00, 0x00,
  0xac, 0x00, 0x00, 0x00, 0xb0, 0x00, 0x00, 0x00, 0xc4, 0x00, 0x00, 0x00,
  0x1d, 0x00, 0x00, 0x00, 0x73, 0x65, 0x71, 0x75, 0x65, 0x6e, 0x74, 0x69,
  0x61, 0x6c, 0x5f, 0x31, 0x2f, 0x67, 0x72, 0x75, 0x5f, 0x31, 0x2f, 0x77,
  0x68, 0x69, 0x6c, 0x65, 0x5f, 0x63, 0x6f, 0x6e, 0x64, 0x00, 0x00, 0x00,
  0x03, 0x00, 0x00, 0x00, 0x54, 0x00, 0x00, 0x00, 0x2c, 0x00, 0x00, 0x00,
  0x04, 0x00, 0x00, 0x00, 0xce, 0xf8, 0xff, 0xff, 0x0c, 0x00, 0x00, 0x00,
  0x10, 0x00, 0x00, 0x00, 0x10, 0x00, 0x00, 0x00, 0x01, 0x00, 0x00, 0x00,
  0x08, 0x00, 0x00, 0x00, 0x02, 0x00, 0x00, 0x00, 0x07, 0x00, 0x00, 0x00,
  0x06, 0x00, 0x00, 0x00, 0xf2, 0xf8, 0xff, 0xff, 0x0c, 0x00, 0x00, 0x00,
  0x10, 0x00, 0x00, 0x00, 0x0f, 0x00, 0x00, 0x00, 0x01, 0x00, 0x00, 0x00,
  0x07, 0x00, 0x00, 0x00, 0x02, 0x00, 0x00, 0x00, 0x00, 0x00, 0x00, 0x00,
  0x05, 0x00, 0x00, 0x00, 0x16, 0xf9, 0xff, 0xff, 0x0c, 0x00, 0x00, 0x00,
  0x10, 0x00, 0x00, 0x00, 0x0f, 0x00, 0x00, 0x00, 0x01, 0x00, 0x00, 0x00,
  0x06, 0x00, 0x00, 0x00, 0x02, 0x00, 0x00, 0x00, 0x01, 0x00, 0x00, 0x00,
  0x05, 0x00, 0x00, 0x00, 0x01, 0x00, 0x00, 0x00, 0x08, 0x00, 0x00, 0x00,
  0x05, 0x00, 0x00, 0x00, 0x00, 0x00, 0x00, 0x00, 0x01, 0x00, 0x00, 0x00,
  0x02, 0x00, 0x00, 0x00, 0x03, 0x00, 0x00, 0x00, 0x04, 0x00, 0x00, 0x00,
  0x09, 0x00, 0x00, 0x00, 0xc0, 0x02, 0x00, 0x00, 0x70, 0x02, 0x00, 0x00,
  0xfc, 0x01, 0x00, 0x00, 0x98, 0x01, 0x00, 0x00, 0x2c, 0x01, 0x00, 0x00,
  0xec, 0x00, 0x00, 0x00, 0xa0, 0x00, 0x00, 0x00, 0x54, 0x00, 0x00, 0x00,
  0x04, 0x00, 0x00, 0x00, 0xb6, 0xe4, 0xff, 0xff, 0x00, 0x00, 0x00, 0x01,
  0x14, 0x00, 0x00, 0x00, 0x14, 0x00, 0x00, 0x00, 0x32, 0x00, 0x00, 0x00,
  0x00, 0x00, 0x00, 0x06, 0x30, 0x00, 0x00, 0x00, 0x40, 0xe4, 0xff, 0xff,
  0x23, 0x00, 0x00, 0x00, 0x73, 0x65, 0x71, 0x75, 0x65, 0x6e, 0x74, 0x69,
  0x61, 0x6c, 0x5f, 0x31, 0x2f, 0x67, 0x72, 0x75, 0x5f, 0x31, 0x2f, 0x77,
  0x68, 0x69, 0x6c, 0x65, 0x2f, 0x4c, 0x6f, 0x67, 0x69, 0x63, 0x61, 0x6c,
  0x41, 0x6e, 0x64, 0x00, 0x00, 0x00, 0x00, 0x00, 0x02, 0xe5, 0xff, 0xff,
  0x00, 0x00, 0x00, 0x01, 0x14, 0x00, 0x00, 0x00, 0x14, 0x00, 0x00, 0x00,
  0x31, 0x00, 0x00, 0x00, 0x00, 0x00, 0x00, 0x06, 0x2c, 0x00, 0x00, 0x00,
  0x8c, 0xe4, 0xff, 0xff, 0x1f, 0x00, 0x00, 0x00, 0x73, 0x65, 0x71, 0x75,
  0x65, 0x6e, 0x74, 0x69, 0x61, 0x6c, 0x5f, 0x31, 0x2f, 0x67, 0x72, 0x75,
  0x5f, 0x31, 0x2f, 0x77, 0x68, 0x69, 0x6c, 0x65, 0x2f, 0x4c, 0x65, 0x73,
  0x73, 0x5f, 0x31, 0x00, 0x00, 0x00, 0x00, 0x00, 0x4a, 0xe5, 0xff, 0xff,
  0x00, 0x00, 0x00, 0x01, 0x14, 0x00, 0x00, 0x00, 0x14, 0x00, 0x00, 0x00,
  0x30, 0x00, 0x00, 0x00, 0x00, 0x00, 0x00, 0x06, 0x2c, 0x00, 0x00, 0x00,
  0xd4, 0xe4, 0xff, 0xff, 0x1d, 0x00, 0x00, 0x00, 0x73, 0x65, 0x71, 0x75,
  0x65, 0x6e, 0x74, 0x69, 0x61, 0x6c, 0x5f, 0x31, 0x2f, 0x67, 0x72, 0x75,
  0x5f, 0x31, 0x2f, 0x77, 0x68, 0x69, 0x6c, 0x65, 0x2f, 0x4c, 0x65, 0x73,
  0x73, 0x00, 0x00, 0x00, 0x00, 0x00, 0x00, 0x00, 0x92, 0xe5, 0xff, 0xff,
  0x00, 0x00, 0x00, 0x01, 0x14, 0x00, 0x00, 0x00, 0x14, 0x00, 0x00, 0x00,
  0x04, 0x00, 0x00, 0x00, 0x00, 0x00, 0x00, 0x02, 0x20, 0x00, 0x00, 0x00,
  0x1c, 0xe5, 0xff, 0xff, 0x10, 0x00, 0x00, 0x00, 0x61, 0x72, 0x69, 0x74,
  0x68, 0x2e, 0x63, 0x6f, 0x6e, 0x73, 0x74, 0x61, 0x6e, 0x74, 0x31, 0x36,
  0x00, 0x00, 0x00, 0x00, 0x00, 0x00, 0x00, 0x00, 0x7e, 0xe5, 0xff, 0xff,
  0x00, 0x00, 0x00, 0x01, 0x14, 0x00, 0x00, 0x00, 0x20, 0x00, 0x00, 0x00,
  0x20, 0x00, 0x00, 0x00, 0x2e, 0x00, 0x00, 0x00, 0x40, 0x00, 0x00, 0x00,
  0x03, 0x00, 0x00, 0x00, 0x01, 0x00, 0x00, 0x00, 0xff, 0xff, 0xff, 0xff,
  0x10, 0x00, 0x00, 0x00, 0x68, 0xe5, 0xff, 0xff, 0x22, 0x00, 0x00, 0x00,
  0x73, 0x65, 0x71, 0x75, 0x65, 0x6e, 0x74, 0x69, 0x61, 0x6c, 0x5f, 0x31,
  0x2f, 0x67, 0x72, 0x75, 0x5f, 0x31, 0x2f, 0x77, 0x68, 0x69, 0x6c, 0x65,
  0x5f, 0x63, 0x6f, 0x6e, 0x64, 0x5f, 0x61, 0x72, 0x67, 0x34, 0x00, 0x00,
  0x03, 0x00, 0x00, 0x00, 0x01, 0x00, 0x00, 0x00, 0x01, 0x00, 0x00, 0x00,
  0x10, 0x00, 0x00, 0x00, 0xe6, 0xe5, 0xff, 0xff, 0x00, 0x00, 0x00, 0x01,
  0x14, 0x00, 0x00, 0x00, 0x1c, 0x00, 0x00, 0x00, 0x1c, 0x00, 0x00, 0x00,
  0x2d, 0x00, 0x00, 0x00, 0x3c, 0x00, 0x00, 0x00, 0x02, 0x00, 0x00, 0x00,
  0xff, 0xff, 0xff, 0xff, 0x10, 0x00, 0x00, 0x00, 0xcc, 0xe5, 0xff, 0xff,
  0x22, 0x00, 0x00, 0x00, 0x73, 0x65, 0x71, 0x75, 0x65, 0x6e, 0x74, 0x69,
  0x61, 0x6c, 0x5f, 0x31, 0x2f, 0x67, 0x72, 0x75, 0x5f, 0x31, 0x2f, 0x77,
  0x68, 0x69, 0x6c, 0x65, 0x5f, 0x63, 0x6f, 0x6e, 0x64, 0x5f, 0x61, 0x72,
  0x67, 0x33, 0x00, 0x00, 0x02, 0x00, 0x00, 0x00, 0x01, 0x00, 0x00, 0x00,
  0x10, 0x00, 0x00, 0x00, 0x3c, 0xee, 0xff, 0xff, 0x1c, 0x00, 0x00, 0x00,
  0x00, 0x00, 0x00, 0x01, 0x34, 0x00, 0x00, 0x00, 0x34, 0x00, 0x00, 0x00,
  0x2c, 0x00, 0x00, 0x00, 0x00, 0x00, 0x00, 0x0e, 0x50, 0x00, 0x00, 0x00,
  0x01, 0x00, 0x00, 0x00, 0x04, 0x00, 0x00, 0x00, 0x22, 0xee, 0xff, 0xff,
  0x00, 0x00, 0x00, 0x01, 0x04, 0x00, 0x00, 0x00, 0x02, 0x00, 0x00, 0x00,
  0x00, 0x00, 0x00, 0x00, 0x10, 0x00, 0x00, 0x00, 0x44, 0xe6, 0xff, 0xff,
  0x22, 0x00, 0x00, 0x00, 0x73, 0x65, 0x71, 0x75, 0x65, 0x6e, 0x74, 0x69,
  0x61, 0x6c, 0x5f, 0x31, 0x2f, 0x67, 0x72, 0x75, 0x5f, 0x31, 0x2f, 0x77,
  0x68, 0x69, 0x6c, 0x65, 0x5f, 0x63, 0x6f, 0x6e, 0x64, 0x5f, 0x61, 0x72,
  0x67, 0x32, 0x00, 0x00, 0x00, 0x00, 0x00, 0x00, 0x06, 0xe7, 0xff, 0xff,
  0x00, 0x00, 0x00, 0x01, 0x14, 0x00, 0x00, 0x00, 0x14, 0x00, 0x00, 0x00,
  0x2b, 0x00, 0x00, 0x00, 0x00, 0x00, 0x00, 0x02, 0x30, 0x00, 0x00, 0x00,
  0x90, 0xe6, 0xff, 0xff, 0x22, 0x00, 0x00, 0x00, 0x73, 0x65, 0x71, 0x75,
  0x65, 0x6e, 0x74, 0x69, 0x61, 0x6c, 0x5f, 0x31, 0x2f, 0x67, 0x72, 0x75,
  0x5f, 0x31, 0x2f, 0x77, 0x68, 0x69, 0x6c, 0x65, 0x5f, 0x63, 0x6f, 0x6e,
  0x64, 0x5f, 0x61, 0x72, 0x67, 0x31, 0x00, 0x00, 0x00, 0x00, 0x00, 0x00,
  0x52, 0xe7, 0xff, 0xff, 0x00, 0x00, 0x00, 0x01, 0x14, 0x00, 0x00, 0x00,
  0x14, 0x00, 0x00, 0x00, 0x2a, 0x00, 0x00, 0x00, 0x00, 0x00, 0x00, 0x02,
  0x30, 0x00, 0x00, 0x00, 0xdc, 0xe6, 0xff, 0xff, 0x22, 0x00, 0x00, 0x00,
  0x73, 0x65, 0x71, 0x75, 0x65, 0x6e, 0x74, 0x69, 0x61, 0x6c, 0x5f, 0x31,
  0x2f, 0x67, 0x72, 0x75, 0x5f, 0x31, 0x2f, 0x77, 0x68, 0x69, 0x6c, 0x65,
  0x5f, 0x63, 0x6f, 0x6e, 0x64, 0x5f, 0x61, 0x72, 0x67, 0x30, 0x00, 0x00,
  0x00, 0x00, 0x00, 0x00, 0x00, 0x00, 0x0e, 0x00, 0x18, 0x00, 0x14, 0x00,
  0x10, 0x00, 0x0c, 0x00, 0x08, 0x00, 0x04, 0x00, 0x0e, 0x00, 0x00, 0x00,
  0x14, 0x00, 0x00, 0x00, 0x1c, 0x00, 0x00, 0x00, 0xfc, 0x04, 0x00, 0x00,
  0x00, 0x05, 0x00, 0x00, 0x04, 0x05, 0x00, 0x00, 0x04, 0x00, 0x00, 0x00,
  0x6d, 0x61, 0x69, 0x6e, 0x00, 0x00, 0x00, 0x00, 0x13, 0x00, 0x00, 0x00,
  0xc4, 0x04, 0x00, 0x00, 0x84, 0x04, 0x00, 0x00, 0xe4, 0x03, 0x00, 0x00,
  0x80, 0x03, 0x00, 0x00, 0x58, 0x03, 0x00, 0x00, 0x10, 0x03, 0x00, 0x00,
  0xc0, 0x02, 0x00, 0x00, 0x80, 0x02, 0x00, 0x00, 0x58, 0x02, 0x00, 0x00,
  0x34, 0x02, 0x00, 0x00, 0x0c, 0x02, 0x00, 0x00, 0xe8, 0x01, 0x00, 0x00,
  0x88, 0x01, 0x00, 0x00, 0xfc, 0x00, 0x00, 0x00, 0xdc, 0x00, 0x00, 0x00,
  0x84, 0x00, 0x00, 0x00, 0x4c, 0x00, 0x00, 0x00, 0x28, 0x00, 0x00, 0x00,
  0x04, 0x00, 0x00, 0x00, 0xee, 0xfc, 0xff, 0xff, 0x0c, 0x00, 0x00, 0x00,
  0x10, 0x00, 0x00, 0x00, 0x09, 0x00, 0x00, 0x00, 0x01, 0x00, 0x00, 0x00,
  0x28, 0x00, 0x00, 0x00, 0x01, 0x00, 0x00, 0x00, 0x27, 0x00, 0x00, 0x00,
  0x0e, 0xfd, 0xff, 0xff, 0x0c, 0x00, 0x00, 0x00, 0x10, 0x00, 0x00, 0x00,
  0x0e, 0x00, 0x00, 0x00, 0x01, 0x00, 0x00, 0x00, 0x27, 0x00, 0x00, 0x00,
  0x01, 0x00, 0x00, 0x00, 0x26, 0x00, 0x00, 0x00, 0x12, 0xfc, 0xff, 0xff,
  0x14, 0x00, 0x00, 0x00, 0x00, 0x00, 0x00, 0x08, 0x10, 0x00, 0x00, 0x00,
  0x14, 0x00, 0x00, 0x00, 0x0d, 0x00, 0x00, 0x00, 0xe8, 0xe7, 0xff, 0xff,
  0x01, 0x00, 0x00, 0x00, 0x26, 0x00, 0x00, 0x00, 0x03, 0x00, 0x00, 0x00,
  0x25, 0x00, 0x00, 0x00, 0x0e, 0x00, 0x00, 0x00, 0x0d, 0x00, 0x00, 0x00,
  0x46, 0xfc, 0xff, 0xff, 0x24, 0x00, 0x00, 0x00, 0x00, 0x00, 0x00, 0x20,
  0x2c, 0x00, 0x00, 0x00, 0x30, 0x00, 0x00, 0x00, 0x06, 0x00, 0x00, 0x00,
  0x00, 0x00, 0x0e, 0x00, 0x10, 0x00, 0x0c, 0x00, 0x08, 0x00, 0x00, 0x00,
  0x00, 0x00, 0x04, 0x00, 0x0e, 0x00, 0x00, 0x00, 0x01, 0x00, 0x00, 0x00,
  0x06, 0x00, 0x00, 0x00, 0x06, 0x00, 0x00, 0x00, 0x01, 0x00, 0x00, 0x00,
  0x25, 0x00, 0x00, 0x00, 0x04, 0x00, 0x00, 0x00, 0x24, 0x00, 0x00, 0x00,
  0x0a, 0x00, 0x00, 0x00, 0x0b, 0x00, 0x00, 0x00, 0x0c, 0x00, 0x00, 0x00,
  0x5a, 0xfc, 0xff, 0xff, 0x08, 0x00, 0x00, 0x00, 0x0c, 0x00, 0x00, 0x00,
  0x01, 0x00, 0x00, 0x00, 0x24, 0x00, 0x00, 0x00, 0x01, 0x00, 0x00, 0x00,
  0x23, 0x00, 0x00, 0x00, 0x54, 0xfd, 0xff, 0xff, 0x10, 0x00, 0x00, 0x00,
  0x6c, 0x00, 0x00, 0x00, 0x70, 0x00, 0x00, 0x00, 0x0c, 0x00, 0x00, 0x00,
  0x5b, 0x00, 0x00, 0x00, 0x0f, 0x54, 0x65, 0x6e, 0x73, 0x6f, 0x72, 0x4c,
  0x69, 0x73, 0x74, 0x53, 0x74, 0x61, 0x63, 0x6b, 0x00, 0x40, 0x12, 0x0f,
  0x54, 0x65, 0x6e, 0x73, 0x6f, 0x72, 0x4c, 0x69, 0x73, 0x74, 0x53, 0x74,
  0x61, 0x63, 0x6b, 0x1a, 0x00, 0x1a, 0x00, 0x2a, 0x12, 0x0a, 0x0c, 0x6e,
  0x75, 0x6d, 0x5f, 0x65, 0x6c, 0x65, 0x6d, 0x65, 0x6e, 0x74, 0x73, 0x12,
  0x02, 0x18, 0x01, 0x2a, 0x13, 0x0a, 0x0d, 0x65, 0x6c, 0x65, 0x6d, 0x65,
  0x6e, 0x74, 0x5f, 0x64, 0x74, 0x79, 0x70, 0x65, 0x12, 0x02, 0x30, 0x01,
  0x32, 0x00, 0x00, 0x02, 0x53, 0x43, 0x14, 0x14, 0x04, 0x28, 0x01, 0x00,
  0x01, 0x00, 0x00, 0x00, 0x23, 0x00, 0x00, 0x00, 0x02, 0x00, 0x00, 0x00,
  0x20, 0x00, 0x00, 0x00, 0x02, 0x00, 0x00, 0x00, 0x3e, 0xfd, 0xff, 0xff,
  0x1c, 0x00, 0x00, 0x00, 0x00, 0x00, 0x00, 0x5d, 0x20, 0x00, 0x00, 0x00,
  0x34, 0x00, 0x00, 0x00, 0x0b, 0x00, 0x00, 0x00, 0x08, 0x00, 0x0c, 0x00,
  0x08, 0x00, 0x04, 0x00, 0x08, 0x00, 0x00, 0x00, 0x02, 0x00, 0x00, 0x00,
  0x01, 0x00, 0x00, 0x00, 0x05, 0x00, 0x00, 0x00, 0x1e, 0x00, 0x00, 0x00,
  0x1f, 0x00, 0x00, 0x00, 0x20, 0x00, 0x00, 0x00, 0x21, 0x00, 0x00, 0x00,
  0x22, 0x00, 0x00, 0x00, 0x05, 0x00, 0x00, 0x00, 0x09, 0x00, 0x00, 0x00,
  0x09, 0x00, 0x00, 0x00, 0x14, 0x00, 0x00, 0x00, 0x1b, 0x00, 0x00, 0x00,
  0x1d, 0x00, 0x00, 0x00, 0xb6, 0xfe, 0xff, 0xff, 0x0c, 0x00, 0x00, 0x00,
  0x10, 0x00, 0x00, 0x00, 0x09, 0x00, 0x00, 0x00, 0x01, 0x00, 0x00, 0x00,
  0x1d, 0x00, 0x00, 0x00, 0x01, 0x00, 0x00, 0x00, 0x1c, 0x00, 0x00, 0x00,
  0xd6, 0xfe, 0xff, 0xff, 0x0c, 0x00, 0x00, 0x00, 0x10, 0x00, 0x00, 0x00,
  0x0a, 0x00, 0x00, 0x00, 0x01, 0x00, 0x00, 0x00, 0x1c, 0x00, 0x00, 0x00,
  0x02, 0x00, 0x00, 0x00, 0x16, 0x00, 0x00, 0x00, 0x08, 0x00, 0x00, 0x00,
  0xfa, 0xfe, 0xff, 0xff, 0x0c, 0x00, 0x00, 0x00, 0x10, 0x00, 0x00, 0x00,
  0x09, 0x00, 0x00, 0x00, 0x01, 0x00, 0x00, 0x00, 0x1b, 0x00, 0x00, 0x00,
  0x01, 0x00, 0x00, 0x00, 0x1a, 0x00, 0x00, 0x00, 0x1a, 0xff, 0xff, 0xff,
  0x0c, 0x00, 0x00, 0x00, 0x10, 0x00, 0x00, 0x00, 0x08, 0x00, 0x00, 0x00,
  0x01, 0x00, 0x00, 0x00, 0x1a, 0x00, 0x00, 0x00, 0x02, 0x00, 0x00, 0x00,
  0x19, 0x00, 0x00, 0x00, 0x0f, 0x00, 0x00, 0x00, 0x22, 0xfe, 0xff, 0xff,
  0x1c, 0x00, 0x00, 0x00, 0x00, 0x00, 0x00, 0x3b, 0x1c, 0x00, 0x00, 0x00,
  0x20, 0x00, 0x00, 0x00, 0x07, 0x00, 0x00, 0x00, 0x00, 0x00, 0x06, 0x00,
  0x08, 0x00, 0x04, 0x00, 0x06, 0x00, 0x00, 0x00, 0x02, 0x00, 0x00, 0x00,
  0x01, 0x00, 0x00, 0x00, 0x19, 0x00, 0x00, 0x00, 0x02, 0x00, 0x00, 0x00,
  0x18, 0x00, 0x00, 0x00, 0x07, 0x00, 0x00, 0x00, 0x5e, 0xfe, 0xff, 0xff,
  0x24, 0x00, 0x00, 0x00, 0x00, 0x00, 0x00, 0x20, 0x24, 0x00, 0x00, 0x00,
  0x28, 0x00, 0x00, 0x00, 0x06, 0x00, 0x00, 0x00, 0x00, 0x00, 0x0e, 0x00,
  0x08, 0x00, 0x00, 0x00, 0x00, 0x00, 0x00, 0x00, 0x00, 0x00, 0x04, 0x00,
  0x0e, 0x00, 0x00, 0x00, 0x01, 0x00, 0x00, 0x00, 0x01, 0x00, 0x00, 0x00,
  0x18, 0x00, 0x00, 0x00, 0x04, 0x00, 0x00, 0x00, 0x17, 0x00, 0x00, 0x00,
  0x05, 0x00, 0x00, 0x00, 0x06, 0x00, 0x00, 0x00, 0x06, 0x00, 0x00, 0x00,
  0xaa, 0xfe, 0xff, 0xff, 0x1c, 0x00, 0x00, 0x00, 0x00, 0x00, 0x00, 0x37,
  0x1c, 0x00, 0x00, 0x00, 0x20, 0x00, 0x00, 0x00, 0x05, 0x00, 0x00, 0x00,
  0x00, 0x00, 0x06, 0x00, 0x08, 0x00, 0x07, 0x00, 0x06, 0x00, 0x00, 0x00,
  0x00, 0x00, 0x00, 0x02, 0x01, 0x00, 0x00, 0x00, 0x17, 0x00, 0x00, 0x00,
  0x01, 0x00, 0x00, 0x00, 0x16, 0x00, 0x00, 0x00, 0x00, 0x00, 0x0a, 0x00,
  0x10, 0x00, 0x0c, 0x00, 0x08, 0x00, 0x04, 0x00, 0x0a, 0x00, 0x00, 0x00,
  0x0c, 0x00, 0x00, 0x00, 0x10, 0x00, 0x00, 0x00, 0x04, 0x00, 0x00, 0x00,
  0x01, 0x00, 0x00, 0x00, 0x16, 0x00, 0x00, 0x00, 0x02, 0x00, 0x00, 0x00,
  0x15, 0x00, 0x00, 0x00, 0x04, 0x00, 0x00, 0x00, 0x12, 0xff, 0xff, 0xff,
  0x20, 0x00, 0x00, 0x00, 0x00, 0x00, 0x00, 0x01, 0x2c, 0x00, 0x00, 0x00,
  0x30, 0x00, 0x00, 0x00, 0x03, 0x00, 0x00, 0x00, 0x0c, 0x00, 0x14, 0x00,
  0x13, 0x00, 0x0c, 0x00, 0x08, 0x00, 0x07, 0x00, 0x0c, 0x00, 0x00, 0x00,
  0x00, 0x00, 0x00, 0x01, 0x01, 0x00, 0x00, 0x00, 0x01, 0x00, 0x00, 0x00,
  0x00, 0x00, 0x00, 0x01, 0x01, 0x00, 0x00, 0x00, 0x15, 0x00, 0x00, 0x00,
  0x03, 0x00, 0x00, 0x00, 0x13, 0x00, 0x00, 0x00, 0x11, 0x00, 0x00, 0x00,
  0x10, 0x00, 0x00, 0x00, 0x10, 0x00, 0x14, 0x00, 0x10, 0x00, 0x0c, 0x00,
  0x08, 0x00, 0x00, 0x00, 0x00, 0x00, 0x04, 0x00, 0x10, 0x00, 0x00, 0x00,
  0x10, 0x00, 0x00, 0x00, 0x70, 0x00, 0x00, 0x00, 0x74, 0x00, 0x00, 0x00,
  0x02, 0x00, 0x00, 0x00, 0x5d, 0x00, 0x00, 0x00, 0x11, 0x54, 0x65, 0x6e,
  0x73, 0x6f, 0x72, 0x4c, 0x69, 0x73, 0x74, 0x52, 0x65, 0x73, 0x65, 0x72,
  0x76, 0x65, 0x00, 0x40, 0x12, 0x11, 0x54, 0x65, 0x6e, 0x73, 0x6f, 0x72,
  0x4c, 0x69, 0x73, 0x74, 0x52, 0x65, 0x73, 0x65, 0x72, 0x76, 0x65, 0x1a,
  0x00, 0x1a, 0x00, 0x2a, 0x10, 0x0a, 0x0a, 0x73, 0x68, 0x61, 0x70, 0x65,
  0x5f, 0x74, 0x79, 0x70, 0x65, 0x12, 0x02, 0x30, 0x03, 0x2a, 0x13, 0x0a,
  0x0d, 0x65, 0x6c, 0x65, 0x6d, 0x65, 0x6e, 0x74, 0x5f, 0x64, 0x74, 0x79,
  0x70, 0x65, 0x12, 0x02, 0x30, 0x01, 0x32, 0x00, 0x00, 0x02, 0x55, 0x43,
  0x14, 0x14, 0x04, 0x28, 0x01, 0x00, 0x00, 0x00, 0x01, 0x00, 0x00, 0x00,
  0x14, 0x00, 0x00, 0x00, 0x02, 0x00, 0x00, 0x00, 0x02, 0x00, 0x00, 0x00,
  0x03, 0x00, 0x00, 0x00, 0x00, 0x00, 0x0e, 0x00, 0x18, 0x00, 0x14, 0x00,
  0x10, 0x00, 0x0c, 0x00, 0x0b, 0x00, 0x04, 0x00, 0x0e, 0x00, 0x00, 0x00,
  0x14, 0x00, 0x00, 0x00, 0x00, 0x00, 0x00, 0x34, 0x10, 0x00, 0x00, 0x00,
  0x14, 0x00, 0x00, 0x00, 0x01, 0x00, 0x00, 0x00, 0xe4, 0xeb, 0xff, 0xff,
  0x01, 0x00, 0x00, 0x00, 0x13, 0x00, 0x00, 0x00, 0x02, 0x00, 0x00, 0x00,
  0x12, 0x00, 0x00, 0x00, 0x01, 0x00, 0x00, 0x00, 0x00, 0x00, 0x0a, 0x00,
  0x0c, 0x00, 0x00, 0x00, 0x08, 0x00, 0x04, 0x00, 0x0a, 0x00, 0x00, 0x00,
  0x08, 0x00, 0x00, 0x00, 0x0c, 0x00, 0x00, 0x00, 0x01, 0x00, 0x00, 0x00,
  0x12, 0x00, 0x00, 0x00, 0x01, 0x00, 0x00, 0x00, 0x00, 0x00, 0x00, 0x00,
  0x01, 0x00, 0x00, 0x00, 0x28, 0x00, 0x00, 0x00, 0x01, 0x00, 0x00, 0x00,
  0x00, 0x00, 0x00, 0x00, 0x29, 0x00, 0x00, 0x00, 0x9c, 0x13, 0x00, 0x00,
  0x48, 0x13, 0x00, 0x00, 0xf0, 0x12, 0x00, 0x00, 0xb4, 0x12, 0x00, 0x00,
  0x74, 0x12, 0x00, 0x00, 0x34, 0x12, 0x00, 0x00, 0xf4, 0x11, 0x00, 0x00,
  0xb8, 0x11, 0x00, 0x00, 0x78, 0x11, 0x00, 0x00, 0x3c, 0x11, 0x00, 0x00,
  0xfc, 0x10, 0x00, 0x00, 0xb8, 0x10, 0x00, 0x00, 0x74, 0x10, 0x00, 0x00,
  0x04, 0x10, 0x00, 0x00, 0x9c, 0x0f, 0x00, 0x00, 0x40, 0x0f, 0x00, 0x00,
  0x2c, 0x0e, 0x00, 0x00, 0x08, 0x0d, 0x00, 0x00, 0x90, 0x0c, 0x00, 0x00,
  0xd8, 0x0b, 0x00, 0x00, 0x58, 0x0b, 0x00, 0x00, 0x48, 0x0a, 0x00, 0x00,
  0x78, 0x09, 0x00, 0x00, 0x2c, 0x09, 0x00, 0x00, 0xdc, 0x08, 0x00, 0x00,
  0x8c, 0x08, 0x00, 0x00, 0x0c, 0x08, 0x00, 0x00, 0xbc, 0x07, 0x00, 0x00,
  0x30, 0x07, 0x00, 0x00, 0xc8, 0x06, 0x00, 0x00, 0x18, 0x06, 0x00, 0x00,
  0x68, 0x05, 0x00, 0x00, 0x94, 0x04, 0x00, 0x00, 0xd0, 0x03, 0x00, 0x00,
  0x04, 0x03, 0x00, 0x00, 0x84, 0x02, 0x00, 0x00, 0x08, 0x02, 0x00, 0x00,
  0x80, 0x01, 0x00, 0x00, 0xe4, 0x00, 0x00, 0x00, 0x60, 0x00, 0x00, 0x00,
  0x04, 0x00, 0x00, 0x00, 0x1e, 0xed, 0xff, 0xff, 0x00, 0x00, 0x00, 0x01,
  0x14, 0x00, 0x00, 0x00, 0x1c, 0x00, 0x00, 0x00, 0x1c, 0x00, 0x00, 0x00,
  0x29, 0x00, 0x00, 0x00, 0x34, 0x00, 0x00, 0x00, 0x02, 0x00, 0x00, 0x00,
  0xff, 0xff, 0xff, 0xff, 0x01, 0x00, 0x00, 0x00, 0x04, 0xed, 0xff, 0xff,
  0x1b, 0x00, 0x00, 0x00, 0x53, 0x74, 0x61, 0x74, 0x65, 0x66, 0x75, 0x6c,
  0x50, 0x61, 0x72, 0x74, 0x69, 0x74, 0x69, 0x6f, 0x6e, 0x65, 0x64, 0x43,
  0x61, 0x6c, 0x6c, 0x5f, 0x31, 0x3a, 0x30, 0x00, 0x02, 0x00, 0x00, 0x00,
  0x01, 0x00, 0x00, 0x00, 0x01, 0x00, 0x00, 0x00, 0x3a, 0xf4, 0xff, 0xff,
  0x00, 0x00, 0x00, 0x01, 0x18, 0x00, 0x00, 0x00, 0x20, 0x00, 0x00, 0x00,
  0x40, 0x00, 0x00, 0x00, 0x28, 0x00, 0x00, 0x00, 0x00, 0x00, 0x00, 0x09,
  0x58, 0x00, 0x00, 0x00, 0x02, 0x00, 0x00, 0x00, 0xff, 0xff, 0xff, 0xff,
  0x01, 0x00, 0x00, 0x00, 0xd4, 0xf0, 0xff, 0xff, 0x08, 0x00, 0x00, 0x00,
  0x14, 0x00, 0x00, 0x00, 0x01, 0x00, 0x00, 0x00, 0x80, 0xff, 0xff, 0xff,
  0xff, 0xff, 0xff, 0xff, 0x00, 0x00, 0x00, 0x00, 0x01, 0x00, 0x00, 0x00,
  0x00, 0x00, 0x80, 0x3b, 0x1c, 0x00, 0x00, 0x00, 0x53, 0x74, 0x61, 0x74,
  0x65, 0x66, 0x75, 0x6c, 0x50, 0x61, 0x72, 0x74, 0x69, 0x74, 0x69, 0x6f,
  0x6e, 0x65, 0x64, 0x43, 0x61, 0x6c, 0x6c, 0x5f, 0x31, 0x3a, 0x30, 0x31,
  0x00, 0x00, 0x00, 0x00, 0x02, 0x00, 0x00, 0x00, 0x01, 0x00, 0x00, 0x00,
  0x01, 0x00, 0x00, 0x00, 0xba, 0xf4, 0xff, 0xff, 0x00, 0x00, 0x00, 0x01,
  0x18, 0x00, 0x00, 0x00, 0x20, 0x00, 0x00, 0x00, 0x40, 0x00, 0x00, 0x00,
  0x27, 0x00, 0x00, 0x00, 0x00, 0x00, 0x00, 0x09, 0x70, 0x00, 0x00, 0x00,
  0x02, 0x00, 0x00, 0x00, 0xff, 0xff, 0xff, 0xff, 0x01, 0x00, 0x00, 0x00,
  0x54, 0xf1, 0xff, 0xff, 0x08, 0x00, 0x00, 0x00, 0x14, 0x00, 0x00, 0x00,
  0x01, 0x00, 0x00, 0x00, 0x18, 0x00, 0x00, 0x00, 0x00, 0x00, 0x00, 0x00,
  0x00, 0x00, 0x00, 0x00, 0x01, 0x00, 0x00, 0x00, 0x00, 0x66, 0x9f, 0x3d,
  0x34, 0x00, 0x00, 0x00, 0x73, 0x65, 0x71, 0x75, 0x65, 0x6e, 0x74, 0x69,
  0x61, 0x6c, 0x5f, 0x31, 0x2f, 0x64, 0x65, 0x6e, 0x73, 0x65, 0x5f, 0x31,
  0x2f, 0x4d, 0x61, 0x74, 0x4d, 0x75, 0x6c, 0x3b, 0x73, 0x65, 0x71, 0x75,
  0x65, 0x6e, 0x74, 0x69, 0x61, 0x6c, 0x5f, 0x31, 0x2f, 0x64, 0x65, 0x6e,
  0x73, 0x65, 0x5f, 0x31, 0x2f, 0x41, 0x64, 0x64, 0x00, 0x00, 0x00, 0x00,
  0x02, 0x00, 0x00, 0x00, 0x01, 0x00, 0x00, 0x00, 0x01, 0x00, 0x00, 0x00,
  0x52, 0xf5, 0xff, 0xff, 0x00, 0x00, 0x00, 0x01, 0x18, 0x00, 0x00, 0x00,
  0x20, 0x00, 0x00, 0x00, 0x40, 0x00, 0x00, 0x00, 0x26, 0x00, 0x00, 0x00,
  0x00, 0x00, 0x00, 0x09, 0x5c, 0x00, 0x00, 0x00, 0x02, 0x00, 0x00, 0x00,
  0xff, 0xff, 0xff, 0xff, 0x10, 0x00, 0x00, 0x00, 0xec, 0xf1, 0xff, 0xff,
  0x08, 0x00, 0x00, 0x00, 0x14, 0x00, 0x00, 0x00, 0x01, 0x00, 0x00, 0x00,
  0x00, 0x00, 0x00, 0x00, 0x00, 0x00, 0x00, 0x00, 0x00, 0x00, 0x00, 0x00,
  0x01, 0x00, 0x00, 0x00, 0x32, 0x80, 0x00, 0x3c, 0x22, 0x00, 0x00, 0x00,
  0x73, 0x65, 0x71, 0x75, 0x65, 0x6e, 0x74, 0x69, 0x61, 0x6c, 0x5f, 0x31,
  0x2f, 0x67, 0x72, 0x75, 0x5f, 0x31, 0x2f, 0x73, 0x74, 0x72, 0x69, 0x64,
  0x65, 0x64, 0x5f, 0x73, 0x6c, 0x69, 0x63, 0x65, 0x5f, 0x33, 0x00, 0x00,
  0x02, 0x00, 0x00, 0x00, 0x01, 0x00, 0x00, 0x00, 0x10, 0x00, 0x00, 0x00,
  0xd6, 0xf5, 0xff, 0xff, 0x00, 0x00, 0x00, 0x01, 0x18, 0x00, 0x00, 0x00,
  0x24, 0x00, 0x00, 0x00, 0x44, 0x00, 0x00, 0x00, 0x25, 0x00, 0x00, 0x00,
  0x00, 0x00, 0x00, 0x09, 0x4c, 0x00, 0x00, 0x00, 0x03, 0x00, 0x00, 0x00,
  0x01, 0x00, 0x00, 0x00, 0xff, 0xff, 0xff, 0xff, 0x10, 0x00, 0x00, 0x00,
  0x74, 0xf2, 0xff, 0xff, 0x08, 0x00, 0x00, 0x00, 0x14, 0x00, 0x00, 0x00,
  0x01, 0x00, 0x00, 0x00, 0x00, 0x00, 0x00, 0x00, 0x00, 0x00, 0x00, 0x00,
  0x00, 0x00, 0x00, 0x00, 0x01, 0x00, 0x00, 0x00, 0x32, 0x80, 0x00, 0x3c,
  0x0d, 0x00, 0x00, 0x00, 0x74, 0x66, 0x6c, 0x2e, 0x71, 0x75, 0x61, 0x6e,
  0x74, 0x69, 0x7a, 0x65, 0x31, 0x00, 0x00, 0x00, 0x03, 0x00, 0x00, 0x00,
  0x01, 0x00, 0x00, 0x00, 0x01, 0x00, 0x00, 0x00, 0x10, 0x00, 0x00, 0x00,
  0x8a, 0xef, 0xff, 0xff, 0x00, 0x00, 0x00, 0x01, 0x14, 0x00, 0x00, 0x00,
  0x20, 0x00, 0x00, 0x00, 0x20, 0x00, 0x00, 0x00, 0x24, 0x00, 0x00, 0x00,
  0x54, 0x00, 0x00, 0x00, 0x03, 0x00, 0x00, 0x00, 0x01, 0x00, 0x00, 0x00,
  0xff, 0xff, 0xff, 0xff, 0x10, 0x00, 0x00, 0x00, 0x74, 0xef, 0xff, 0xff,
  0x35, 0x00, 0x00, 0x00, 0x73, 0x65, 0x71, 0x75, 0x65, 0x6e, 0x74, 0x69,
  0x61, 0x6c, 0x5f, 0x31, 0x2f, 0x67, 0x72, 0x75, 0x5f, 0x31, 0x2f, 0x54,
  0x65, 0x6e, 0x73, 0x6f, 0x72, 0x41, 0x72, 0x72, 0x61, 0x79, 0x56, 0x32,
  0x53, 0x74, 0x61, 0x63, 0x6b, 0x2f, 0x54, 0x65, 0x6e, 0x73, 0x6f, 0x72,
  0x4c, 0x69, 0x73, 0x74, 0x53, 0x74, 0x61, 0x63, 0x6b, 0x00, 0x00, 0x00,
  0x03, 0x00, 0x00, 0x00, 0x01, 0x00, 0x00, 0x00, 0x01, 0x00, 0x00, 0x00,
  0x10, 0x00, 0x00, 0x00, 0x06, 0xf0, 0xff, 0xff, 0x00, 0x00, 0x00, 0x01,
  0x14, 0x00, 0x00, 0x00, 0x20, 0x00, 0x00, 0x00, 0x20, 0x00, 0x00, 0x00,
